{
  "version": "1.0",
  "truncation": null,
  "padding": null,
  "added_tokens": [
    {
      "id": 0,
      "content": "[UNK]",
      "single_word": false,
      "lstrip": false,
      "rstrip": false,
      "normalized": false,
      "special": true
    },
    {
      "id": 1,
      "content": "[PAD]",
      "single_word": false,
      "lstrip": false,
      "rstrip": false,
      "normalized": false,
      "special": true
    },
    {
      "id": 2,
      "content": "[SOS]",
      "single_word": false,
      "lstrip": false,
      "rstrip": false,
      "normalized": false,
      "special": true
    },
    {
      "id": 3,
      "content": "[EOS]",
      "single_word": false,
      "lstrip": false,
      "rstrip": false,
      "normalized": false,
      "special": true
    }
  ],
  "normalizer": null,
  "pre_tokenizer": {
    "type": "Whitespace"
  },
  "post_processor": null,
  "decoder": null,
  "model": {
    "type": "BPE",
    "dropout": null,
    "unk_token": "[UNK]",
    "continuing_subword_prefix": null,
    "end_of_word_suffix": null,
    "fuse_unk": false,
    "byte_fallback": false,
    "ignore_merges": false,
    "vocab": {
      "[UNK]": 0,
      "[PAD]": 1,
      "[SOS]": 2,
      "[EOS]": 3,
      "a": 4,
      "b": 5,
      "c": 6,
      "d": 7,
      "e": 8,
      "f": 9,
      "g": 10,
      "h": 11,
      "i": 12,
      "j": 13,
      "k": 14,
      "l": 15,
      "m": 16,
      "n": 17,
      "o": 18,
      "p": 19,
      "q": 20,
      "r": 21,
      "s": 22,
      "t": 23,
      "u": 24,
      "v": 25,
      "w": 26,
      "x": 27,
      "y": 28,
      "z": 29,
      "in": 30,
      "er": 31,
      "es": 32,
      "on": 33,
      "or": 34,
      "an": 35,
      "ar": 36,
      "al": 37,
      "en": 38,
      "to": 39,
      "st": 40,
      "re": 41,
      "at": 42,
      "ed": 43,
      "ou": 44,
      "it": 45,
      "ing": 46,
      "ic": 47,
      "il": 48,
      "ac": 49,
      "is": 50,
      "ro": 51,
      "for": 52,
      "ion": 53,
      "as": 54,
      "le": 55,
      "ch": 56,
      "de": 57,
      "ol": 58,
      "ur": 59,
      "ra": 60,
      "th": 61,
      "ers": 62,
      "us": 63,
      "ts": 64,
      "un": 65,
      "el": 66,
      "ig": 67,
      "ov": 68,
      "la": 69,
      "se": 70,
      "om": 71,
      "of": 72,
      "am": 73,
      "ad": 74,
      "ent": 75,
      "ay": 76,
      "ri": 77,
      "ir": 78,
      "est": 79,
      "con": 80,
      "ge": 81,
      "id": 82,
      "lo": 83,
      "ne": 84,
      "and": 85,
      "op": 86,
      "im": 87,
      "pro": 88,
      "ter": 89,
      "over": 90,
      "be": 91,
      "ack": 92,
      "ice": 93,
      "ill": 94,
      "cou": 95,
      "ow": 96,
      "sh": 97,
      "pl": 98,
      "igh": 99,
      "up": 100,
      "ation": 101,
      "af": 102,
      "pol": 103,
      "ce": 104,
      "all": 105,
      "ke": 106,
      "sp": 107,
      "ct": 108,
      "ot": 109,
      "ap": 110,
      "man": 111,
      "res": 112,
      "ag": 113,
      "ist": 114,
      "ab": 115,
      "ds": 116,
      "ve": 117,
      "ul": 118,
      "com": 119,
      "ies": 120,
      "ort": 121,
      "ks": 122,
      "he": 123,
      "police": 124,
      "bo": 125,
      "ie": 126,
      "ind": 127,
      "ust": 128,
      "ta": 129,
      "plan": 130,
      "war": 131,
      "qu": 132,
      "ut": 133,
      "ns": 134,
      "co": 135,
      "out": 136,
      "wor": 137,
      "ex": 138,
      "pe": 139,
      "po": 140,
      "ian": 141,
      "ate": 142,
      "um": 143,
      "new": 144,
      "cr": 145,
      "gov": 146,
      "em": 147,
      "port": 148,
      "der": 149,
      "coun": 150,
      "li": 151,
      "wit": 152,
      "fi": 153,
      "ia": 154,
      "govt": 155,
      "off": 156,
      "ast": 157,
      "ld": 158,
      "ine": 159,
      "ath": 160,
      "su": 161,
      "ain": 162,
      "ear": 163,
      "att": 164,
      "ity": 165,
      "ight": 166,
      "rou": 167,
      "with": 168,
      "after": 169,
      "ud": 170,
      "our": 171,
      "counc": 172,
      "ash": 173,
      "ho": 174,
      "te": 175,
      "cl": 176,
      "par": 177,
      "mis": 178,
      "car": 179,
      "act": 180,
      "vic": 181,
      "ged": 182,
      "ment": 183,
      "end": 184,
      "gh": 185,
      "ore": 186,
      "bl": 187,
      "the": 188,
      "ess": 189,
      "ira": 190,
      "win": 191,
      "back": 192,
      "council": 193,
      "ak": 194,
      "ges": 195,
      "iraq": 196,
      "ens": 197,
      "land": 198,
      "ace": 199,
      "et": 200,
      "ustr": 201,
      "ail": 202,
      "ru": 203,
      "ris": 204,
      "ass": 205,
      "ays": 206,
      "ps": 207,
      "tra": 208,
      "iv": 209,
      "ish": 210,
      "kill": 211,
      "ban": 212,
      "ions": 213,
      "call": 214,
      "mar": 215,
      "min": 216,
      "own": 217,
      "ck": 218,
      "oun": 219,
      "red": 220,
      "bus": 221,
      "air": 222,
      "wa": 223,
      "dis": 224,
      "by": 225,
      "char": 226,
      "ant": 227,
      "ell": 228,
      "old": 229,
      "cont": 230,
      "we": 231,
      "ase": 232,
      "br": 233,
      "fire": 234,
      "do": 235,
      "ents": 236,
      "wo": 237,
      "lead": 238,
      "ence": 239,
      "ber": 240,
      "fun": 241,
      "ach": 242,
      "arm": 243,
      "ip": 244,
      "ser": 245,
      "me": 246,
      "ims": 247,
      "work": 248,
      "ous": 249,
      "miss": 250,
      "per": 251,
      "row": 252,
      "age": 253,
      "fin": 254,
      "cour": 255,
      "may": 256,
      "ild": 257,
      "mp": 258,
      "ree": 259,
      "says": 260,
      "jo": 261,
      "als": 262,
      "its": 263,
      "cer": 264,
      "high": 265,
      "austr": 266,
      "austral": 267,
      "fe": 268,
      "av": 269,
      "down": 270,
      "wat": 271,
      "one": 272,
      "cla": 273,
      "cor": 274,
      "od": 275,
      "cus": 276,
      "riv": 277,
      "sur": 278,
      "ors": 279,
      "go": 280,
      "ide": 281,
      "lay": 282,
      "ric": 283,
      "court": 284,
      "get": 285,
      "more": 286,
      "ger": 287,
      "ost": 288,
      "tur": 289,
      "pos": 290,
      "can": 291,
      "bla": 292,
      "comm": 293,
      "sch": 294,
      "tri": 295,
      "ard": 296,
      "fir": 297,
      "hel": 298,
      "amp": 299,
      "reat": 300,
      "ly": 301,
      "ec": 302,
      "see": 303,
      "rom": 304,
      "test": 305,
      "ty": 306,
      "ue": 307,
      "mo": 308,
      "ital": 309,
      "ident": 310,
      "ction": 311,
      "chan": 312,
      "sup": 313,
      "again": 314,
      "grou": 315,
      "ning": 316,
      "ans": 317,
      "vict": 318,
      "cons": 319,
      "ong": 320,
      "tr": 321,
      "from": 322,
      "ive": 323,
      "cle": 324,
      "ition": 325,
      "pu": 326,
      "water": 327,
      "alth": 328,
      "ins": 329,
      "tour": 330,
      "under": 331,
      "ure": 332,
      "no": 333,
      "inv": 334,
      "urged": 335,
      "sy": 336,
      "sc": 337,
      "boost": 338,
      "low": 339,
      "ars": 340,
      "death": 341,
      "form": 342,
      "gra": 343,
      "sa": 344,
      "attack": 345,
      "cent": 346,
      "not": 347,
      "ign": 348,
      "rug": 349,
      "ates": 350,
      "def": 351,
      "ces": 352,
      "set": 353,
      "ite": 354,
      "health": 355,
      "outh": 356,
      "ance": 357,
      "mur": 358,
      "crash": 359,
      "omb": 360,
      "rev": 361,
      "hosp": 362,
      "way": 363,
      "rest": 364,
      "claims": 365,
      "report": 366,
      "ma": 367,
      "if": 368,
      "killed": 369,
      "ends": 370,
      "into": 371,
      "against": 372,
      "rem": 373,
      "law": 374,
      "ned": 375,
      "sec": 376,
      "king": 377,
      "lab": 378,
      "ons": 379,
      "head": 380,
      "pres": 381,
      "gu": 382,
      "fl": 383,
      "are": 384,
      "ism": 385,
      "farm": 386,
      "consid": 387,
      "fo": 388,
      "fer": 389,
      "cy": 390,
      "minist": 391,
      "ound": 392,
      "fr": 393,
      "art": 394,
      "ms": 395,
      "bush": 396,
      "nsw": 397,
      "hospital": 398,
      "ial": 399,
      "ss": 400,
      "hop": 401,
      "qld": 402,
      "road": 403,
      "bs": 404,
      "tal": 405,
      "contin": 406,
      "ele": 407,
      "ang": 408,
      "den": 409,
      "top": 410,
      "stud": 411,
      "aus": 412,
      "ef": 413,
      "tim": 414,
      "reg": 415,
      "fight": 416,
      "tas": 417,
      "ears": 418,
      "invest": 419,
      "group": 420,
      "med": 421,
      "concer": 422,
      "bomb": 423,
      "ding": 424,
      "ists": 425,
      "ats": 426,
      "child": 427,
      "ble": 428,
      "ep": 429,
      "ights": 430,
      "inter": 431,
      "ush": 432,
      "nor": 433,
      "itic": 434,
      "inj": 435,
      "bre": 436,
      "play": 437,
      "wom": 438,
      "pow": 439,
      "cap": 440,
      "ome": 441,
      "ha": 442,
      "ght": 443,
      "nation": 444,
      "ney": 445,
      "bu": 446,
      "ry": 447,
      "ues": 448,
      "kes": 449,
      "ont": 450,
      "des": 451,
      "acc": 452,
      "probe": 453,
      "ze": 454,
      "face": 455,
      "tro": 456,
      "drug": 457,
      "ool": 458,
      "ina": 459,
      "clo": 460,
      "ph": 461,
      "vel": 462,
      "por": 463,
      "open": 464,
      "comp": 465,
      "leg": 466,
      "help": 467,
      "ket": 468,
      "school": 469,
      "day": 470,
      "pect": 471,
      "wel": 472,
      "pt": 473,
      "au": 474,
      "jail": 475,
      "south": 476,
      "fac": 477,
      "ver": 478,
      "clear": 479,
      "two": 480,
      "bur": 481,
      "sus": 482,
      "threat": 483,
      "ory": 484,
      "investig": 485,
      "eng": 486,
      "publ": 487,
      "ief": 488,
      "ink": 489,
      "minister": 490,
      "murder": 491,
      "world": 492,
      "ations": 493,
      "pay": 494,
      "du": 495,
      "dead": 496,
      "dra": 497,
      "dem": 498,
      "ary": 499,
      "put": 500,
      "ther": 501,
      "inqu": 502,
      "australia": 503,
      "int": 504,
      "funds": 505,
      "nt": 506,
      "str": 507,
      "serv": 508,
      "ones": 509,
      "ult": 510,
      "ants": 511,
      "public": 512,
      "pr": 513,
      "dec": 514,
      "will": 515,
      "pm": 516,
      "calls": 517,
      "cup": 518,
      "mov": 519,
      "stri": 520,
      "syd": 521,
      "missing": 522,
      "ines": 523,
      "sydney": 524,
      "ire": 525,
      "terr": 526,
      "use": 527,
      "driv": 528,
      "ings": 529,
      "cre": 530,
      "gre": 531,
      "aid": 532,
      "ull": 533,
      "secur": 534,
      "rej": 535,
      "saf": 536,
      "ton": 537,
      "os": 538,
      "arch": 539,
      "coast": 540,
      "ands": 541,
      "australian": 542,
      "nam": 543,
      "take": 544,
      "appe": 545,
      "iew": 546,
      "oppos": 547,
      "fish": 548,
      "gets": 549,
      "west": 550,
      "backs": 551,
      "meet": 552,
      "fall": 553,
      "recor": 554,
      "plans": 555,
      "ale": 556,
      "loo": 557,
      "ys": 558,
      "retur": 559,
      "deal": 560,
      "col": 561,
      "cost": 562,
      "ision": 563,
      "cro": 564,
      "terror": 565,
      "wins": 566,
      "hun": 567,
      "dies": 568,
      "power": 569,
      "pre": 570,
      "dam": 571,
      "home": 572,
      "ga": 573,
      "support": 574,
      "sho": 575,
      "ects": 576,
      "talks": 577,
      "accus": 578,
      "gr": 579,
      "seeks": 580,
      "charged": 581,
      "bar": 582,
      "mil": 583,
      "ses": 584,
      "welcom": 585,
      "ann": 586,
      "dou": 587,
      "si": 588,
      "centre": 589,
      "rain": 590,
      "ll": 591,
      "cal": 592,
      "found": 593,
      "care": 594,
      "rise": 595,
      "security": 596,
      "indig": 597,
      "charges": 598,
      "bour": 599,
      "enous": 600,
      "indigenous": 601,
      "push": 602,
      "bal": 603,
      "camp": 604,
      "labor": 605,
      "workers": 606,
      "concerns": 607,
      "sex": 608,
      "farmers": 609,
      "beg": 610,
      "changes": 611,
      "fed": 612,
      "ises": 613,
      "critic": 614,
      "gold": 615,
      "protest": 616,
      "show": 617,
      "oc": 618,
      "cond": 619,
      "funding": 620,
      "trial": 621,
      "fam": 622,
      "ick": 623,
      "ise": 624,
      "opposition": 625,
      "search": 626,
      "mon": 627,
      "fears": 628,
      "grow": 629,
      "les": 630,
      "wal": 631,
      "union": 632,
      "case": 633,
      "wh": 634,
      "els": 635,
      "iry": 636,
      "tain": 637,
      "ft": 638,
      "sn": 639,
      "tar": 640,
      "chief": 641,
      "inquiry": 642,
      "ves": 643,
      "ops": 644,
      "app": 645,
      "hol": 646,
      "commun": 647,
      "quest": 648,
      "spe": 649,
      "plo": 650,
      "offic": 651,
      "service": 652,
      "iness": 653,
      "record": 654,
      "ouse": 655,
      "istan": 656,
      "final": 657,
      "former": 658,
      "ives": 659,
      "about": 660,
      "national": 661,
      "ley": 662,
      "north": 663,
      "train": 664,
      "gy": 665,
      "consider": 666,
      "iraqi": 667,
      "ev": 668,
      "laun": 669,
      "business": 670,
      "ade": 671,
      "big": 672,
      "line": 673,
      "shar": 674,
      "sw": 675,
      "rejects": 676,
      "vis": 677,
      "still": 678,
      "bro": 679,
      "woman": 680,
      "bab": 681,
      "but": 682,
      "mel": 683,
      "gen": 684,
      "rele": 685,
      "auss": 686,
      "famil": 687,
      "idents": 688,
      "ile": 689,
      "defends": 690,
      "pris": 691,
      "first": 692,
      "isra": 693,
      "dy": 694,
      "run": 695,
      "fu": 696,
      "rul": 697,
      "ional": 698,
      "brit": 699,
      "china": 700,
      "ward": 701,
      "review": 702,
      "aust": 703,
      "cu": 704,
      "ump": 705,
      "ports": 706,
      "israel": 707,
      "devel": 708,
      "atch": 709,
      "seek": 710,
      "election": 711,
      "ured": 712,
      "eral": 713,
      "action": 714,
      "ren": 715,
      "pected": 716,
      "takes": 717,
      "doct": 718,
      "hit": 719,
      "mer": 720,
      "develop": 721,
      "hold": 722,
      "continues": 723,
      "house": 724,
      "ham": 725,
      "sto": 726,
      "industr": 727,
      "accused": 728,
      "three": 729,
      "blast": 730,
      "light": 731,
      "bir": 732,
      "pal": 733,
      "industry": 734,
      "men": 735,
      "stor": 736,
      "decision": 737,
      "mayor": 738,
      "bid": 739,
      "denies": 740,
      "conf": 741,
      "arrest": 742,
      "stra": 743,
      "england": 744,
      "rought": 745,
      "rail": 746,
      "four": 747,
      "anti": 748,
      "ury": 749,
      "how": 750,
      "ised": 751,
      "bul": 752,
      "study": 753,
      "ated": 754,
      "tax": 755,
      "break": 756,
      "ier": 757,
      "bourne": 758,
      "east": 759,
      "delay": 760,
      "drought": 761,
      "sure": 762,
      "spar": 763,
      "tit": 764,
      "clu": 765,
      "fit": 766,
      "sm": 767,
      "launch": 768,
      "tes": 769,
      "indones": 770,
      "ians": 771,
      "faces": 772,
      "acks": 773,
      "ather": 774,
      "appeal": 775,
      "eu": 776,
      "market": 777,
      "strike": 778,
      "ities": 779,
      "year": 780,
      "cri": 781,
      "vot": 782,
      "return": 783,
      "regional": 784,
      "mill": 785,
      "pak": 786,
      "mc": 787,
      "urges": 788,
      "ped": 789,
      "tow": 790,
      "ety": 791,
      "di": 792,
      "her": 793,
      "considers": 794,
      "abb": 795,
      "need": 796,
      "har": 797,
      "leads": 798,
      "legal": 799,
      "safety": 800,
      "mak": 801,
      "ugh": 802,
      "free": 803,
      "gun": 804,
      "jap": 805,
      "prison": 806,
      "community": 807,
      "fail": 808,
      "injured": 809,
      "troops": 810,
      "melbourne": 811,
      "ake": 812,
      "ical": 813,
      "bag": 814,
      "gs": 815,
      "mine": 816,
      "residents": 817,
      "sol": 818,
      "warns": 819,
      "laws": 820,
      "ting": 821,
      "bud": 822,
      "gam": 823,
      "tel": 824,
      "oil": 825,
      "ern": 826,
      "sing": 827,
      "sold": 828,
      "net": 829,
      "gl": 830,
      "ures": 831,
      "milit": 832,
      "dar": 833,
      "offer": 834,
      "cover": 835,
      "accident": 836,
      "bill": 837,
      "pakistan": 838,
      "cut": 839,
      "warning": 840,
      "wants": 841,
      "able": 842,
      "host": 843,
      "ally": 844,
      "thor": 845,
      "pat": 846,
      "issu": 847,
      "hits": 848,
      "campa": 849,
      "japan": 850,
      "ect": 851,
      "howard": 852,
      "don": 853,
      "uk": 854,
      "ced": 855,
      "sen": 856,
      "rel": 857,
      "rus": 858,
      "teen": 859,
      "family": 860,
      "ff": 861,
      "bers": 862,
      "sent": 863,
      "vi": 864,
      "tourism": 865,
      "pri": 866,
      "key": 867,
      "read": 868,
      "ken": 869,
      "ness": 870,
      "nu": 871,
      "kills": 872,
      "kore": 873,
      "budget": 874,
      "dan": 875,
      "poll": 876,
      "ba": 877,
      "clash": 878,
      "claim": 879,
      "ami": 880,
      "begins": 881,
      "batt": 882,
      "rate": 883,
      "vices": 884,
      "time": 885,
      "well": 886,
      "short": 887,
      "aff": 888,
      "team": 889,
      "focus": 890,
      "jailed": 891,
      "pon": 892,
      "ple": 893,
      "title": 894,
      "ault": 895,
      "deb": 896,
      "ben": 897,
      "beat": 898,
      "teach": 899,
      "services": 900,
      "ret": 901,
      "hopes": 902,
      "toll": 903,
      "continue": 904,
      "tsun": 905,
      "ven": 906,
      "prepar": 907,
      "hon": 908,
      "campaign": 909,
      "bra": 910,
      "vir": 911,
      "dro": 912,
      "green": 913,
      "oper": 914,
      "appro": 915,
      "sk": 916,
      "fut": 917,
      "shoot": 918,
      "trade": 919,
      "iers": 920,
      "ok": 921,
      "welcomes": 922,
      "ahead": 923,
      "nz": 924,
      "ship": 925,
      "pass": 926,
      "crow": 927,
      "ca": 928,
      "tsunami": 929,
      "ext": 930,
      "ient": 931,
      "future": 932,
      "cess": 933,
      "second": 934,
      "resear": 935,
      "research": 936,
      "find": 937,
      "force": 938,
      "ott": 939,
      "ention": 940,
      "cast": 941,
      "flo": 942,
      "wee": 943,
      "build": 944,
      "bi": 945,
      "river": 946,
      "fat": 947,
      "change": 948,
      "ank": 949,
      "rol": 950,
      "ws": 951,
      "cycl": 952,
      "ball": 953,
      "telstra": 954,
      "abuse": 955,
      "attacks": 956,
      "elect": 957,
      "make": 958,
      "rough": 959,
      "charge": 960,
      "gas": 961,
      "pite": 962,
      "local": 963,
      "victims": 964,
      "ey": 965,
      "sl": 966,
      "leaders": 967,
      "ymp": 968,
      "ste": 969,
      "uni": 970,
      "blaze": 971,
      "meeting": 972,
      "doub": 973,
      "cks": 974,
      "announ": 975,
      "park": 976,
      "dad": 977,
      "job": 978,
      "link": 979,
      "development": 980,
      "ases": 981,
      "could": 982,
      "hur": 983,
      "rid": 984,
      "ely": 985,
      "post": 986,
      "liber": 987,
      "lights": 988,
      "say": 989,
      "woes": 990,
      "adela": 991,
      "british": 992,
      "wait": 993,
      "mot": 994,
      "come": 995,
      "que": 996,
      "promis": 997,
      "expected": 998,
      "highway": 999,
      "move": 1000,
      "ution": 1001,
      "sal": 1002,
      "india": 1003,
      "offers": 1004,
      "strong": 1005,
      "bel": 1006,
      "assault": 1007,
      "mission": 1008,
      "guil": 1009,
      "ased": 1010,
      "remain": 1011,
      "adelaide": 1012,
      "clar": 1013,
      "tions": 1014,
      "raid": 1015,
      "flu": 1016,
      "point": 1017,
      "compan": 1018,
      "guilty": 1019,
      "incre": 1020,
      "ery": 1021,
      "ason": 1022,
      "alle": 1023,
      "long": 1024,
      "tru": 1025,
      "uc": 1026,
      "olymp": 1027,
      "bali": 1028,
      "nuclear": 1029,
      "ress": 1030,
      "bank": 1031,
      "despite": 1032,
      "ics": 1033,
      "ility": 1034,
      "price": 1035,
      "ghan": 1036,
      "orig": 1037,
      "hand": 1038,
      "wont": 1039,
      "keep": 1040,
      "bagh": 1041,
      "na": 1042,
      "through": 1043,
      "prote": 1044,
      "terrorism": 1045,
      "baghdad": 1046,
      "lath": 1047,
      "star": 1048,
      "latham": 1049,
      "mem": 1050,
      "state": 1051,
      "susp": 1052,
      "staff": 1053,
      "cts": 1054,
      "allen": 1055,
      "hope": 1056,
      "hous": 1057,
      "part": 1058,
      "iran": 1059,
      "super": 1060,
      "told": 1061,
      "arrested": 1062,
      "stand": 1063,
      "hill": 1064,
      "station": 1065,
      "have": 1066,
      "ese": 1067,
      "investigate": 1068,
      "ited": 1069,
      "vil": 1070,
      "ments": 1071,
      "hu": 1072,
      "pop": 1073,
      "rac": 1074,
      "sla": 1075,
      "black": 1076,
      "caus": 1077,
      "lar": 1078,
      "puts": 1079,
      "hi": 1080,
      "tig": 1081,
      "nd": 1082,
      "polic": 1083,
      "tests": 1084,
      "val": 1085,
      "than": 1086,
      "highlights": 1087,
      "che": 1088,
      "viol": 1089,
      "rules": 1090,
      "sea": 1091,
      "hear": 1092,
      "airport": 1093,
      "club": 1094,
      "sale": 1095,
      "peace": 1096,
      "dr": 1097,
      "coal": 1098,
      "za": 1099,
      "alp": 1100,
      "aussie": 1101,
      "leader": 1102,
      "wind": 1103,
      "ator": 1104,
      "let": 1105,
      "body": 1106,
      "effor": 1107,
      "deta": 1108,
      "doctors": 1109,
      "challen": 1110,
      "eme": 1111,
      "ious": 1112,
      "eld": 1113,
      "estin": 1114,
      "years": 1115,
      "kn": 1116,
      "mit": 1117,
      "stop": 1118,
      "promp": 1119,
      "beatt": 1120,
      "fa": 1121,
      "exp": 1122,
      "ours": 1123,
      "ages": 1124,
      "bes": 1125,
      "num": 1126,
      "blo": 1127,
      "pn": 1128,
      "bor": 1129,
      "imp": 1130,
      "pra": 1131,
      "ought": 1132,
      "add": 1133,
      "coach": 1134,
      "russ": 1135,
      "happ": 1136,
      "confident": 1137,
      "pric": 1138,
      "ref": 1139,
      "bet": 1140,
      "hot": 1141,
      "exper": 1142,
      "author": 1143,
      "fatal": 1144,
      "target": 1145,
      "palestin": 1146,
      "firm": 1147,
      "origin": 1148,
      "scheme": 1149,
      "victory": 1150,
      "release": 1151,
      "beattie": 1152,
      "ict": 1153,
      "visit": 1154,
      "mal": 1155,
      "jobs": 1156,
      "ural": 1157,
      "life": 1158,
      "sub": 1159,
      "warned": 1160,
      "ells": 1161,
      "housing": 1162,
      "rates": 1163,
      "ints": 1164,
      "six": 1165,
      "start": 1166,
      "fore": 1167,
      "perth": 1168,
      "tasman": 1169,
      "shooting": 1170,
      "zim": 1171,
      "ific": 1172,
      "happy": 1173,
      "ker": 1174,
      "nur": 1175,
      "igns": 1176,
      "plant": 1177,
      "aves": 1178,
      "korea": 1179,
      "fuel": 1180,
      "lon": 1181,
      "politic": 1182,
      "try": 1183,
      "cuts": 1184,
      "storm": 1185,
      "season": 1186,
      "vote": 1187,
      "champ": 1188,
      "ease": 1189,
      "jud": 1190,
      "match": 1191,
      "van": 1192,
      "wi": 1193,
      "good": 1194,
      "ready": 1195,
      "gover": 1196,
      "week": 1197,
      "real": 1198,
      "forces": 1199,
      "disput": 1200,
      "ler": 1201,
      "plane": 1202,
      "lik": 1203,
      "makes": 1204,
      "sign": 1205,
      "ench": 1206,
      "fra": 1207,
      "afric": 1208,
      "five": 1209,
      "sparks": 1210,
      "award": 1211,
      "dump": 1212,
      "president": 1213,
      "soc": 1214,
      "proj": 1215,
      "iz": 1216,
      "race": 1217,
      "prices": 1218,
      "drivers": 1219,
      "questions": 1220,
      "aged": 1221,
      "zimbab": 1222,
      "ling": 1223,
      "wood": 1224,
      "sets": 1225,
      "lim": 1226,
      "greens": 1227,
      "bun": 1228,
      "mi": 1229,
      "students": 1230,
      "moves": 1231,
      "reach": 1232,
      "idence": 1233,
      "cam": 1234,
      "injury": 1235,
      "likely": 1236,
      "ium": 1237,
      "aed": 1238,
      "stay": 1239,
      "last": 1240,
      "federal": 1241,
      "too": 1242,
      "agre": 1243,
      "ah": 1244,
      "hip": 1245,
      "vey": 1246,
      "ai": 1247,
      "ows": 1248,
      "emer": 1249,
      "french": 1250,
      "speed": 1251,
      "tle": 1252,
      "tough": 1253,
      "euro": 1254,
      "mus": 1255,
      "stem": 1256,
      "company": 1257,
      "alleged": 1258,
      "afghan": 1259,
      "defence": 1260,
      "hal": 1261,
      "canber": 1262,
      "fires": 1263,
      "battle": 1264,
      "ging": 1265,
      "ould": 1266,
      "progra": 1267,
      "sars": 1268,
      "ulls": 1269,
      "zimbabwe": 1270,
      "imm": 1271,
      "dog": 1272,
      "ug": 1273,
      "ils": 1274,
      "boy": 1275,
      "fare": 1276,
      "beh": 1277,
      "pled": 1278,
      "ten": 1279,
      "commit": 1280,
      "track": 1281,
      "violence": 1282,
      "og": 1283,
      "cru": 1284,
      "fect": 1285,
      "list": 1286,
      "pred": 1287,
      "cancer": 1288,
      "wast": 1289,
      "youth": 1290,
      "hears": 1291,
      "debate": 1292,
      "ract": 1293,
      "ask": 1294,
      "ival": 1295,
      "victor": 1296,
      "fre": 1297,
      "sad": 1298,
      "treat": 1299,
      "escap": 1300,
      "lands": 1301,
      "sought": 1302,
      "ament": 1303,
      "upgra": 1304,
      "join": 1305,
      "darwin": 1306,
      "control": 1307,
      "israeli": 1308,
      "policy": 1309,
      "driver": 1310,
      "ative": 1311,
      "finds": 1312,
      "bushfire": 1313,
      "wards": 1314,
      "erson": 1315,
      "propos": 1316,
      "ave": 1317,
      "div": 1318,
      "ating": 1319,
      "councils": 1320,
      "ators": 1321,
      "ended": 1322,
      "restric": 1323,
      "educ": 1324,
      "shire": 1325,
      "produ": 1326,
      "parli": 1327,
      "investigation": 1328,
      "share": 1329,
      "ral": 1330,
      "yer": 1331,
      "ders": 1332,
      "parliament": 1333,
      "stabb": 1334,
      "growers": 1335,
      "dispute": 1336,
      "cele": 1337,
      "spot": 1338,
      "bird": 1339,
      "econ": 1340,
      "econom": 1341,
      "bay": 1342,
      "hard": 1343,
      "sport": 1344,
      "resc": 1345,
      "soldiers": 1346,
      "gar": 1347,
      "spec": 1348,
      "close": 1349,
      "heat": 1350,
      "risk": 1351,
      "tigers": 1352,
      "fil": 1353,
      "inc": 1354,
      "explo": 1355,
      "mental": 1356,
      "discus": 1357,
      "doubt": 1358,
      "ring": 1359,
      "board": 1360,
      "look": 1361,
      "celebr": 1362,
      "irl": 1363,
      "site": 1364,
      "ray": 1365,
      "ement": 1366,
      "near": 1367,
      "hunt": 1368,
      "canberra": 1369,
      "bail": 1370,
      "fest": 1371,
      "impro": 1372,
      "front": 1373,
      "rob": 1374,
      "dol": 1375,
      "rural": 1376,
      "son": 1377,
      "german": 1378,
      "education": 1379,
      "ster": 1380,
      "proble": 1381,
      "cris": 1382,
      "waste": 1383,
      "girl": 1384,
      "truck": 1385,
      "pool": 1386,
      "fur": 1387,
      "loss": 1388,
      "flood": 1389,
      "olympic": 1390,
      "bris": 1391,
      "appoint": 1392,
      "kid": 1393,
      "mor": 1394,
      "icket": 1395,
      "blues": 1396,
      "benef": 1397,
      "pen": 1398,
      "uring": 1399,
      "jour": 1400,
      "interest": 1401,
      "ner": 1402,
      "icks": 1403,
      "planned": 1404,
      "clean": 1405,
      "teachers": 1406,
      "program": 1407,
      "ko": 1408,
      "rup": 1409,
      "mining": 1410,
      "crisis": 1411,
      "sum": 1412,
      "icide": 1413,
      "profit": 1414,
      "surv": 1415,
      "fishing": 1416,
      "ias": 1417,
      "squ": 1418,
      "ird": 1419,
      "looks": 1420,
      "challenge": 1421,
      "brisban": 1422,
      "angers": 1423,
      "bass": 1424,
      "has": 1425,
      "pair": 1426,
      "welcome": 1427,
      "ib": 1428,
      "efforts": 1429,
      "aussies": 1430,
      "drop": 1431,
      "reform": 1432,
      "crime": 1433,
      "cand": 1434,
      "ful": 1435,
      "vo": 1436,
      "ference": 1437,
      "az": 1438,
      "roy": 1439,
      "gency": 1440,
      "mat": 1441,
      "leaves": 1442,
      "ploy": 1443,
      "building": 1444,
      "brisbane": 1445,
      "indonesian": 1446,
      "aks": 1447,
      "training": 1448,
      "issues": 1449,
      "stru": 1450,
      "reb": 1451,
      "scient": 1452,
      "loc": 1453,
      "pan": 1454,
      "empt": 1455,
      "party": 1456,
      "downer": 1457,
      "military": 1458,
      "leave": 1459,
      "councill": 1460,
      "forest": 1461,
      "impact": 1462,
      "hist": 1463,
      "led": 1464,
      "cross": 1465,
      "candid": 1466,
      "rally": 1467,
      "rock": 1468,
      "rive": 1469,
      "system": 1470,
      "project": 1471,
      "rescue": 1472,
      "prem": 1473,
      "so": 1474,
      "thous": 1475,
      "deaths": 1476,
      "question": 1477,
      "rist": 1478,
      "dismiss": 1479,
      "victim": 1480,
      "shortage": 1481,
      "dom": 1482,
      "mid": 1483,
      "pil": 1484,
      "firefight": 1485,
      "gives": 1486,
      "pack": 1487,
      "city": 1488,
      "hom": 1489,
      "opens": 1490,
      "carr": 1491,
      "promises": 1492,
      "discuss": 1493,
      "thousands": 1494,
      "crack": 1495,
      "firms": 1496,
      "prompts": 1497,
      "anger": 1498,
      "quake": 1499,
      "emergency": 1500,
      "demo": 1501,
      "pressure": 1502,
      "fol": 1503,
      "tip": 1504,
      "roll": 1505,
      "smo": 1506,
      "det": 1507,
      "numbers": 1508,
      "restrictions": 1509,
      "she": 1510,
      "watch": 1511,
      "planning": 1512,
      "inese": 1513,
      "town": 1514,
      "govern": 1515,
      "leag": 1516,
      "oney": 1517,
      "democr": 1518,
      "lic": 1519,
      "indonesia": 1520,
      "third": 1521,
      "draw": 1522,
      "wild": 1523,
      "chinese": 1524,
      "boss": 1525,
      "suicide": 1526,
      "ips": 1527,
      "mag": 1528,
      "pet": 1529,
      "survey": 1530,
      "double": 1531,
      "ane": 1532,
      "place": 1533,
      "boat": 1534,
      "lif": 1535,
      "ulation": 1536,
      "turn": 1537,
      "gla": 1538,
      "early": 1539,
      "urch": 1540,
      "gaza": 1541,
      "illegal": 1542,
      "hewit": 1543,
      "army": 1544,
      "children": 1545,
      "lions": 1546,
      "fact": 1547,
      "lin": 1548,
      "want": 1549,
      "reve": 1550,
      "overs": 1551,
      "custo": 1552,
      "night": 1553,
      "rece": 1554,
      "adv": 1555,
      "ries": 1556,
      "works": 1557,
      "fig": 1558,
      "doctor": 1559,
      "lob": 1560,
      "begin": 1561,
      "detention": 1562,
      "united": 1563,
      "nal": 1564,
      "reports": 1565,
      "igr": 1566,
      "kets": 1567,
      "suc": 1568,
      "named": 1569,
      "boys": 1570,
      "fined": 1571,
      "great": 1572,
      "nab": 1573,
      "ello": 1574,
      "beach": 1575,
      "ping": 1576,
      "rights": 1577,
      "respon": 1578,
      "ager": 1579,
      "threaten": 1580,
      "name": 1581,
      "ences": 1582,
      "reds": 1583,
      "dock": 1584,
      "lank": 1585,
      "mic": 1586,
      "pac": 1587,
      "insur": 1588,
      "targets": 1589,
      "saddam": 1590,
      "joh": 1591,
      "foot": 1592,
      "dd": 1593,
      "fear": 1594,
      "wr": 1595,
      "indust": 1596,
      "groups": 1597,
      "france": 1598,
      "hewitt": 1599,
      "aims": 1600,
      "io": 1601,
      "increase": 1602,
      "upgrade": 1603,
      "ved": 1604,
      "fails": 1605,
      "bombing": 1606,
      "asked": 1607,
      "png": 1608,
      "ards": 1609,
      "ctor": 1610,
      "mark": 1611,
      "croc": 1612,
      "protesters": 1613,
      "stabbing": 1614,
      "jor": 1615,
      "lines": 1616,
      "christ": 1617,
      "uran": 1618,
      "held": 1619,
      "tion": 1620,
      "tos": 1621,
      "indian": 1622,
      "announces": 1623,
      "vol": 1624,
      "stre": 1625,
      "shot": 1626,
      "contract": 1627,
      "growth": 1628,
      "mits": 1629,
      "weather": 1630,
      "asy": 1631,
      "liver": 1632,
      "afl": 1633,
      "goes": 1634,
      "drugs": 1635,
      "phil": 1636,
      "pleads": 1637,
      "ama": 1638,
      "explos": 1639,
      "die": 1640,
      "ipp": 1641,
      "sri": 1642,
      "ert": 1643,
      "stands": 1644,
      "delays": 1645,
      "palestinian": 1646,
      "island": 1647,
      "press": 1648,
      "fair": 1649,
      "ual": 1650,
      "conference": 1651,
      "central": 1652,
      "costello": 1653,
      "ji": 1654,
      "mas": 1655,
      "ending": 1656,
      "pushes": 1657,
      "youn": 1658,
      "other": 1659,
      "manage": 1660,
      "plays": 1661,
      "bart": 1662,
      "during": 1663,
      "sun": 1664,
      "vers": 1665,
      "witness": 1666,
      "main": 1667,
      "ners": 1668,
      "rial": 1669,
      "behind": 1670,
      "cow": 1671,
      "plac": 1672,
      "merger": 1673,
      "remains": 1674,
      "festival": 1675,
      "qual": 1676,
      "fund": 1677,
      "baby": 1678,
      "eds": 1679,
      "church": 1680,
      "industrial": 1681,
      "dav": 1682,
      "itions": 1683,
      "commission": 1684,
      "firefighters": 1685,
      "bow": 1686,
      "ik": 1687,
      "rises": 1688,
      "joins": 1689,
      "ville": 1690,
      "band": 1691,
      "lock": 1692,
      "heads": 1693,
      "medical": 1694,
      "cur": 1695,
      "ites": 1696,
      "extra": 1697,
      "soccer": 1698,
      "petro": 1699,
      "tran": 1700,
      "launches": 1701,
      "league": 1702,
      "ran": 1703,
      "ams": 1704,
      "lose": 1705,
      "sentence": 1706,
      "original": 1707,
      "mps": 1708,
      "ults": 1709,
      "len": 1710,
      "pects": 1711,
      "gery": 1712,
      "ify": 1713,
      "western": 1714,
      "gan": 1715,
      "tre": 1716,
      "alco": 1717,
      "roads": 1718,
      "blow": 1719,
      "loom": 1720,
      "shop": 1721,
      "quar": 1722,
      "ivers": 1723,
      "bans": 1724,
      "food": 1725,
      "success": 1726,
      "ron": 1727,
      "aster": 1728,
      "lift": 1729,
      "aceh": 1730,
      "fisher": 1731,
      "admits": 1732,
      "aboriginal": 1733,
      "away": 1734,
      "mes": 1735,
      "stone": 1736,
      "young": 1737,
      "ots": 1738,
      "senate": 1739,
      "far": 1740,
      "his": 1741,
      "jones": 1742,
      "yet": 1743,
      "tv": 1744,
      "suppl": 1745,
      "threatens": 1746,
      "gee": 1747,
      "mans": 1748,
      "philipp": 1749,
      "xed": 1750,
      "ino": 1751,
      "itor": 1752,
      "ension": 1753,
      "possi": 1754,
      "solom": 1755,
      "oos": 1756,
      "iw": 1757,
      "my": 1758,
      "tack": 1759,
      "agreement": 1760,
      "shows": 1761,
      "wallab": 1762,
      "better": 1763,
      "must": 1764,
      "anc": 1765,
      "ross": 1766,
      "field": 1767,
      "save": 1768,
      "dollar": 1769,
      "wallabies": 1770,
      "view": 1771,
      "news": 1772,
      "helps": 1773,
      "women": 1774,
      "suspect": 1775,
      "safe": 1776,
      "refu": 1777,
      "amo": 1778,
      "scientists": 1779,
      "democrats": 1780,
      "ials": 1781,
      "ya": 1782,
      "towns": 1783,
      "envir": 1784,
      "ashes": 1785,
      "refus": 1786,
      "fly": 1787,
      "inde": 1788,
      "rap": 1789,
      "tee": 1790,
      "closure": 1791,
      "facing": 1792,
      "response": 1793,
      "petrol": 1794,
      "ky": 1795,
      "signs": 1796,
      "ability": 1797,
      "management": 1798,
      "environ": 1799,
      "bash": 1800,
      "oo": 1801,
      "rape": 1802,
      "australians": 1803,
      "figures": 1804,
      "lit": 1805,
      "ties": 1806,
      "cleared": 1807,
      "worth": 1808,
      "grand": 1809,
      "vows": 1810,
      "kee": 1811,
      "country": 1812,
      "broken": 1813,
      "squad": 1814,
      "bb": 1815,
      "ted": 1816,
      "medic": 1817,
      "suspected": 1818,
      "inquest": 1819,
      "driving": 1820,
      "tells": 1821,
      "employ": 1822,
      "waits": 1823,
      "surgery": 1824,
      "spark": 1825,
      "castle": 1826,
      "fla": 1827,
      "motor": 1828,
      "transport": 1829,
      "gers": 1830,
      "hor": 1831,
      "ener": 1832,
      "ford": 1833,
      "iet": 1834,
      "needed": 1835,
      "just": 1836,
      "stage": 1837,
      "attempt": 1838,
      "coalition": 1839,
      "london": 1840,
      "journal": 1841,
      "give": 1842,
      "trans": 1843,
      "tourist": 1844,
      "bat": 1845,
      "brid": 1846,
      "bol": 1847,
      "sack": 1848,
      "tun": 1849,
      "ires": 1850,
      "resum": 1851,
      "media": 1852,
      "human": 1853,
      "judge": 1854,
      "alcohol": 1855,
      "acy": 1856,
      "proper": 1857,
      "evidence": 1858,
      "relief": 1859,
      "pacific": 1860,
      "resol": 1861,
      "redu": 1862,
      "blair": 1863,
      "returns": 1864,
      "rebels": 1865,
      "rig": 1866,
      "peop": 1867,
      "antas": 1868,
      "less": 1869,
      "loses": 1870,
      "affect": 1871,
      "round": 1872,
      "timor": 1873,
      "fri": 1874,
      "anim": 1875,
      "recover": 1876,
      "demand": 1877,
      "mass": 1878,
      "avy": 1879,
      "players": 1880,
      "blasts": 1881,
      "storms": 1882,
      "drink": 1883,
      "cit": 1884,
      "nr": 1885,
      "ination": 1886,
      "condem": 1887,
      "series": 1888,
      "government": 1889,
      "europe": 1890,
      "eline": 1891,
      "hail": 1892,
      "russian": 1893,
      "drive": 1894,
      "feder": 1895,
      "fraud": 1896,
      "slow": 1897,
      "norther": 1898,
      "qantas": 1899,
      "ides": 1900,
      "points": 1901,
      "disease": 1902,
      "willi": 1903,
      "costs": 1904,
      "officer": 1905,
      "cab": 1906,
      "qaed": 1907,
      "chop": 1908,
      "haw": 1909,
      "nationals": 1910,
      "protection": 1911,
      "dest": 1912,
      "mour": 1913,
      "ods": 1914,
      "games": 1915,
      "nurses": 1916,
      "mad": 1917,
      "yers": 1918,
      "newcastle": 1919,
      "concerned": 1920,
      "atsic": 1921,
      "southern": 1922,
      "released": 1923,
      "tipped": 1924,
      "gm": 1925,
      "pot": 1926,
      "higher": 1927,
      "haul": 1928,
      "address": 1929,
      "possible": 1930,
      "era": 1931,
      "order": 1932,
      "phone": 1933,
      "film": 1934,
      "anz": 1935,
      "airs": 1936,
      "snow": 1937,
      "million": 1938,
      "people": 1939,
      "qaeda": 1940,
      "flow": 1941,
      "gent": 1942,
      "giv": 1943,
      "hobart": 1944,
      "wool": 1945,
      "revamp": 1946,
      "schools": 1947,
      "eric": 1948,
      "role": 1949,
      "thers": 1950,
      "sees": 1951,
      "falls": 1952,
      "pledges": 1953,
      "priv": 1954,
      "forum": 1955,
      "level": 1956,
      "access": 1957,
      "dut": 1958,
      "moun": 1959,
      "pull": 1960,
      "coron": 1961,
      "murray": 1962,
      "san": 1963,
      "compo": 1964,
      "pho": 1965,
      "chel": 1966,
      "queens": 1967,
      "rud": 1968,
      "tight": 1969,
      "alice": 1970,
      "prov": 1971,
      "should": 1972,
      "cricket": 1973,
      "canad": 1974,
      "hearing": 1975,
      "follow": 1976,
      "owners": 1977,
      "finals": 1978,
      "sales": 1979,
      "hotel": 1980,
      "improve": 1981,
      "problems": 1982,
      "cell": 1983,
      "wer": 1984,
      "govts": 1985,
      "bron": 1986,
      "oid": 1987,
      "lee": 1988,
      "cham": 1989,
      "seven": 1990,
      "antan": 1991,
      "blamed": 1992,
      "student": 1993,
      "burn": 1994,
      "bulld": 1995,
      "japanese": 1996,
      "cli": 1997,
      "gian": 1998,
      "log": 1999,
      "prof": 2000,
      "criticises": 2001,
      "cause": 2002,
      "allow": 2003,
      "ith": 2004,
      "protests": 2005,
      "soldier": 2006,
      "northern": 2007,
      "tam": 2008,
      "confirms": 2009,
      "space": 2010,
      "authorities": 2011,
      "iation": 2012,
      "reef": 2013,
      "officials": 2014,
      "cos": 2015,
      "tech": 2016,
      "mother": 2017,
      "issue": 2018,
      "apol": 2019,
      "gang": 2020,
      "lat": 2021,
      "wine": 2022,
      "term": 2023,
      "class": 2024,
      "hunter": 2025,
      "africa": 2026,
      "think": 2027,
      "dept": 2028,
      "beaz": 2029,
      "rescu": 2030,
      "boosts": 2031,
      "colle": 2032,
      "operation": 2033,
      "rangers": 2034,
      "reject": 2035,
      "holds": 2036,
      "eag": 2037,
      "mac": 2038,
      "native": 2039,
      "rene": 2040,
      "pip": 2041,
      "sil": 2042,
      "another": 2043,
      "sheep": 2044,
      "williams": 2045,
      "fine": 2046,
      "gal": 2047,
      "igo": 2048,
      "champion": 2049,
      "bulldo": 2050,
      "dire": 2051,
      "kings": 2052,
      "comple": 2053,
      "bend": 2054,
      "enc": 2055,
      "ough": 2056,
      "export": 2057,
      "rown": 2058,
      "hurt": 2059,
      "treatment": 2060,
      "bridge": 2061,
      "major": 2062,
      "councillor": 2063,
      "amid": 2064,
      "damage": 2065,
      "dismisses": 2066,
      "cop": 2067,
      "gin": 2068,
      "oul": 2069,
      "raises": 2070,
      "quit": 2071,
      "lawyer": 2072,
      "bombers": 2073,
      "detaine": 2074,
      "escape": 2075,
      "glades": 2076,
      "banglades": 2077,
      "solomons": 2078,
      "bon": 2079,
      "month": 2080,
      "memor": 2081,
      "states": 2082,
      "traff": 2083,
      "weap": 2084,
      "birth": 2085,
      "foreign": 2086,
      "unt": 2087,
      "cred": 2088,
      "resour": 2089,
      "parents": 2090,
      "bad": 2091,
      "gree": 2092,
      "hen": 2093,
      "before": 2094,
      "warri": 2095,
      "summit": 2096,
      "bas": 2097,
      "criticism": 2098,
      "bulldogs": 2099,
      "ju": 2100,
      "wall": 2101,
      "xt": 2102,
      "clim": 2103,
      "shares": 2104,
      "beazley": 2105,
      "bendigo": 2106,
      "gri": 2107,
      "step": 2108,
      "office": 2109,
      "international": 2110,
      "critical": 2111,
      "honour": 2112,
      "histor": 2113,
      "awaits": 2114,
      "rum": 2115,
      "unhappy": 2116,
      "anded": 2117,
      "cept": 2118,
      "suspended": 2119,
      "igration": 2120,
      "ogy": 2121,
      "thr": 2122,
      "warn": 2123,
      "attle": 2124,
      "drag": 2125,
      "reta": 2126,
      "theft": 2127,
      "prepare": 2128,
      "itage": 2129,
      "unve": 2130,
      "prepares": 2131,
      "crackdown": 2132,
      "best": 2133,
      "cel": 2134,
      "gain": 2135,
      "ruling": 2136,
      "danger": 2137,
      "property": 2138,
      "sain": 2139,
      "next": 2140,
      "pose": 2141,
      "worker": 2142,
      "honours": 2143,
      "candidate": 2144,
      "chelsea": 2145,
      "awards": 2146,
      "outs": 2147,
      "acu": 2148,
      "spring": 2149,
      "earth": 2150,
      "tackle": 2151,
      "medicare": 2152,
      "federer": 2153,
      "stit": 2154,
      "comments": 2155,
      "braz": 2156,
      "ove": 2157,
      "ads": 2158,
      "cyclone": 2159,
      "fal": 2160,
      "most": 2161,
      "chase": 2162,
      "unions": 2163,
      "anderson": 2164,
      "rests": 2165,
      "travel": 2166,
      "guantan": 2167,
      "businesses": 2168,
      "mixed": 2169,
      "lanka": 2170,
      "given": 2171,
      "je": 2172,
      "pit": 2173,
      "sav": 2174,
      "porn": 2175,
      "britain": 2176,
      "heritage": 2177,
      "kidn": 2178,
      "warriors": 2179,
      "guantanamo": 2180,
      "bri": 2181,
      "jacks": 2182,
      "kar": 2183,
      "resign": 2184,
      "boom": 2185,
      "embass": 2186,
      "corp": 2187,
      "iff": 2188,
      "keeps": 2189,
      "jet": 2190,
      "sell": 2191,
      "arrests": 2192,
      "strug": 2193,
      "quits": 2194,
      "liberals": 2195,
      "evacu": 2196,
      "political": 2197,
      "predic": 2198,
      "insurance": 2199,
      "convict": 2200,
      "pc": 2201,
      "dogs": 2202,
      "prin": 2203,
      "strikes": 2204,
      "kers": 2205,
      "tree": 2206,
      "ambul": 2207,
      "neg": 2208,
      "bled": 2209,
      "avoid": 2210,
      "flight": 2211,
      "demands": 2212,
      "teacher": 2213,
      "eagles": 2214,
      "money": 2215,
      "ches": 2216,
      "aper": 2217,
      "results": 2218,
      "fighting": 2219,
      "slams": 2220,
      "farewell": 2221,
      "scare": 2222,
      "was": 2223,
      "count": 2224,
      "udi": 2225,
      "ground": 2226,
      "further": 2227,
      "petition": 2228,
      "eight": 2229,
      "some": 2230,
      "uru": 2231,
      "cture": 2232,
      "draws": 2233,
      "smoking": 2234,
      "philippines": 2235,
      "energy": 2236,
      "embassy": 2237,
      "cas": 2238,
      "fast": 2239,
      "ency": 2240,
      "trading": 2241,
      "turns": 2242,
      "broad": 2243,
      "bulls": 2244,
      "past": 2245,
      "tor": 2246,
      "wheat": 2247,
      "posit": 2248,
      "angar": 2249,
      "closes": 2250,
      "conditions": 2251,
      "stocks": 2252,
      "waiting": 2253,
      "expert": 2254,
      "premier": 2255,
      "bangladesh": 2256,
      "nine": 2257,
      "heart": 2258,
      "blue": 2259,
      "retire": 2260,
      "cattle": 2261,
      "book": 2262,
      "activ": 2263,
      "rich": 2264,
      "ministers": 2265,
      "compla": 2266,
      "grant": 2267,
      "official": 2268,
      "traffic": 2269,
      "lum": 2270,
      "wl": 2271,
      "worries": 2272,
      "brazil": 2273,
      "cra": 2274,
      "cats": 2275,
      "ests": 2276,
      "beck": 2277,
      "span": 2278,
      "athens": 2279,
      "appointed": 2280,
      "trou": 2281,
      "hero": 2282,
      "pont": 2283,
      "roos": 2284,
      "inet": 2285,
      "small": 2286,
      "praises": 2287,
      "urs": 2288,
      "urge": 2289,
      "upbeat": 2290,
      "comes": 2291,
      "russia": 2292,
      "side": 2293,
      "militants": 2294,
      "tasmania": 2295,
      "predict": 2296,
      "benefits": 2297,
      "historic": 2298,
      "din": 2299,
      "being": 2300,
      "lip": 2301,
      "armed": 2302,
      "coll": 2303,
      "game": 2304,
      "victoria": 2305,
      "economic": 2306,
      "weapons": 2307,
      "ambulance": 2308,
      "gn": 2309,
      "sters": 2310,
      "defe": 2311,
      "takeover": 2312,
      "committee": 2313,
      "cowboys": 2314,
      "cabinet": 2315,
      "anzac": 2316,
      "hicks": 2317,
      "swe": 2318,
      "spain": 2319,
      "details": 2320,
      "coroner": 2321,
      "father": 2322,
      "erc": 2323,
      "iss": 2324,
      "warne": 2325,
      "breaks": 2326,
      "shark": 2327,
      "crows": 2328,
      "ming": 2329,
      "non": 2330,
      "tic": 2331,
      "oph": 2332,
      "gling": 2333,
      "blood": 2334,
      "ax": 2335,
      "cases": 2336,
      "late": 2337,
      "pga": 2338,
      "stance": 2339,
      "reco": 2340,
      "weed": 2341,
      "rugby": 2342,
      "eful": 2343,
      "weekend": 2344,
      "penal": 2345,
      "ied": 2346,
      "wol": 2347,
      "oning": 2348,
      "aca": 2349,
      "chem": 2350,
      "reser": 2351,
      "clin": 2352,
      "killing": 2353,
      "tourists": 2354,
      "colla": 2355,
      "prisoner": 2356,
      "hostage": 2357,
      "half": 2358,
      "ifi": 2359,
      "miner": 2360,
      "finish": 2361,
      "womens": 2362,
      "hurric": 2363,
      "christmas": 2364,
      "wil": 2365,
      "exam": 2366,
      "killer": 2367,
      "white": 2368,
      "pati": 2369,
      "eye": 2370,
      "protect": 2371,
      "incident": 2372,
      "asylum": 2373,
      "liverpool": 2374,
      "ponting": 2375,
      "recogn": 2376,
      "leak": 2377,
      "supply": 2378,
      "chopper": 2379,
      "pipeline": 2380,
      "pend": 2381,
      "chair": 2382,
      "cane": 2383,
      "remem": 2384,
      "suspects": 2385,
      "da": 2386,
      "gay": 2387,
      "prev": 2388,
      "who": 2389,
      "asbes": 2390,
      "andal": 2391,
      "sugar": 2392,
      "bles": 2393,
      "timber": 2394,
      "robber": 2395,
      "memorial": 2396,
      "asbestos": 2397,
      "hab": 2398,
      "rethink": 2399,
      "unlikely": 2400,
      "asters": 2401,
      "bypass": 2402,
      "course": 2403,
      "doubts": 2404,
      "lobby": 2405,
      "dop": 2406,
      "mt": 2407,
      "alert": 2408,
      "itals": 2409,
      "declar": 2410,
      "iraqis": 2411,
      "corby": 2412,
      "deadline": 2413,
      "records": 2414,
      "clubs": 2415,
      "mir": 2416,
      "sudan": 2417,
      "rising": 2418,
      "mart": 2419,
      "osters": 2420,
      "explosion": 2421,
      "called": 2422,
      "markets": 2423,
      "saudi": 2424,
      "looking": 2425,
      "families": 2426,
      "launched": 2427,
      "eyes": 2428,
      "jackson": 2429,
      "dist": 2430,
      "lop": 2431,
      "crashes": 2432,
      "internet": 2433,
      "captain": 2434,
      "buy": 2435,
      "date": 2436,
      "gi": 2437,
      "glo": 2438,
      "organ": 2439,
      "cher": 2440,
      "raised": 2441,
      "fix": 2442,
      "corrup": 2443,
      "interview": 2444,
      "closer": 2445,
      "townsville": 2446,
      "right": 2447,
      "orders": 2448,
      "stan": 2449,
      "stars": 2450,
      "exec": 2451,
      "wealth": 2452,
      "strate": 2453,
      "hund": 2454,
      "whale": 2455,
      "music": 2456,
      "benefit": 2457,
      "reveals": 2458,
      "aim": 2459,
      "eas": 2460,
      "kangar": 2461,
      "rout": 2462,
      "march": 2463,
      "talk": 2464,
      "leadership": 2465,
      "freed": 2466,
      "special": 2467,
      "nrl": 2468,
      "catch": 2469,
      "process": 2470,
      "marine": 2471,
      "needs": 2472,
      "block": 2473,
      "package": 2474,
      "custody": 2475,
      "lds": 2476,
      "uj": 2477,
      "beef": 2478,
      "spr": 2479,
      "illa": 2480,
      "ctions": 2481,
      "surge": 2482,
      "arsen": 2483,
      "breach": 2484,
      "gp": 2485,
      "lu": 2486,
      "enders": 2487,
      "stolen": 2488,
      "gress": 2489,
      "lev": 2490,
      "lake": 2491,
      "bracks": 2492,
      "causes": 2493,
      "border": 2494,
      "uranium": 2495,
      "animal": 2496,
      "cash": 2497,
      "dle": 2498,
      "gather": 2499,
      "veter": 2500,
      "winds": 2501,
      "airy": 2502,
      "woods": 2503,
      "holders": 2504,
      "pope": 2505,
      "predicts": 2506,
      "paed": 2507,
      "officers": 2508,
      "knights": 2509,
      "beckham": 2510,
      "ters": 2511,
      "wound": 2512,
      "orts": 2513,
      "arriv": 2514,
      "itz": 2515,
      "conserv": 2516,
      "assist": 2517,
      "mob": 2518,
      "powers": 2519,
      "aids": 2520,
      "falluj": 2521,
      "independ": 2522,
      "hundreds": 2523,
      "deport": 2524,
      "spir": 2525,
      "lower": 2526,
      "stock": 2527,
      "members": 2528,
      "johns": 2529,
      "street": 2530,
      "ci": 2531,
      "lie": 2532,
      "sin": 2533,
      "live": 2534,
      "smug": 2535,
      "royal": 2536,
      "homes": 2537,
      "hawks": 2538,
      "broncos": 2539,
      "saints": 2540,
      "civ": 2541,
      "dairy": 2542,
      "nom": 2543,
      "radi": 2544,
      "estic": 2545,
      "plic": 2546,
      "italian": 2547,
      "guard": 2548,
      "concern": 2549,
      "malays": 2550,
      "credit": 2551,
      "hans": 2552,
      "nel": 2553,
      "thai": 2554,
      "tribut": 2555,
      "made": 2556,
      "linked": 2557,
      "african": 2558,
      "global": 2559,
      "lers": 2560,
      "sie": 2561,
      "elds": 2562,
      "americ": 2563,
      "teens": 2564,
      "blacks": 2565,
      "winning": 2566,
      "approves": 2567,
      "immigration": 2568,
      "bh": 2569,
      "icop": 2570,
      "spill": 2571,
      "ute": 2572,
      "helicop": 2573,
      "bury": 2574,
      "crean": 2575,
      "raids": 2576,
      "ising": 2577,
      "card": 2578,
      "banned": 2579,
      "welfare": 2580,
      "monitor": 2581,
      "sharks": 2582,
      "comeback": 2583,
      "palestinians": 2584,
      "factory": 2585,
      "base": 2586,
      "had": 2587,
      "mu": 2588,
      "mol": 2589,
      "mack": 2590,
      "nats": 2591,
      "igence": 2592,
      "enter": 2593,
      "expl": 2594,
      "afghanistan": 2595,
      "positive": 2596,
      "masters": 2597,
      "sor": 2598,
      "akes": 2599,
      "hospitals": 2600,
      "proposal": 2601,
      "brown": 2602,
      "fav": 2603,
      "fans": 2604,
      "nes": 2605,
      "nas": 2606,
      "elder": 2607,
      "promot": 2608,
      "exports": 2609,
      "their": 2610,
      "brawl": 2611,
      "expans": 2612,
      "authority": 2613,
      "fallujah": 2614,
      "bies": 2615,
      "gest": 2616,
      "asia": 2617,
      "attend": 2618,
      "discover": 2619,
      "highlight": 2620,
      "times": 2621,
      "tasmanian": 2622,
      "domestic": 2623,
      "spanish": 2624,
      "kim": 2625,
      "ving": 2626,
      "afe": 2627,
      "certain": 2628,
      "patients": 2629,
      "aud": 2630,
      "irrig": 2631,
      "options": 2632,
      "expect": 2633,
      "ifies": 2634,
      "shock": 2635,
      "walk": 2636,
      "paedoph": 2637,
      "civil": 2638,
      "expansion": 2639,
      "lack": 2640,
      "rule": 2641,
      "meat": 2642,
      "consult": 2643,
      "grain": 2644,
      "flights": 2645,
      "appeals": 2646,
      "racing": 2647,
      "ruddock": 2648,
      "bound": 2649,
      "gall": 2650,
      "elf": 2651,
      "constru": 2652,
      "spending": 2653,
      "taiw": 2654,
      "wage": 2655,
      "confidence": 2656,
      "virus": 2657,
      "full": 2658,
      "gol": 2659,
      "pur": 2660,
      "wide": 2661,
      "ana": 2662,
      "rodd": 2663,
      "rage": 2664,
      "raise": 2665,
      "shut": 2666,
      "player": 2667,
      "capt": 2668,
      "decide": 2669,
      "days": 2670,
      "hours": 2671,
      "swans": 2672,
      "experts": 2673,
      "looms": 2674,
      "friend": 2675,
      "hamp": 2676,
      "pain": 2677,
      "manager": 2678,
      "box": 2679,
      "pole": 2680,
      "crush": 2681,
      "duct": 2682,
      "singap": 2683,
      "pledge": 2684,
      "queensland": 2685,
      "ob": 2686,
      "pies": 2687,
      "sat": 2688,
      "used": 2689,
      "sele": 2690,
      "australias": 2691,
      "crews": 2692,
      "cycling": 2693,
      "promise": 2694,
      "refugee": 2695,
      "rescued": 2696,
      "kidnapp": 2697,
      "corruption": 2698,
      "sam": 2699,
      "araf": 2700,
      "thail": 2701,
      "ote": 2702,
      "paris": 2703,
      "working": 2704,
      "tribun": 2705,
      "nations": 2706,
      "domin": 2707,
      "techn": 2708,
      "gue": 2709,
      "zz": 2710,
      "lives": 2711,
      "easter": 2712,
      "witnesses": 2713,
      "detainees": 2714,
      "hurricane": 2715,
      "singapore": 2716,
      "bell": 2717,
      "dent": 2718,
      "would": 2719,
      "enced": 2720,
      "stun": 2721,
      "atic": 2722,
      "armstrong": 2723,
      "ever": 2724,
      "ti": 2725,
      "ador": 2726,
      "upset": 2727,
      "policeman": 2728,
      "poor": 2729,
      "bless": 2730,
      "turkey": 2731,
      "remov": 2732,
      "running": 2733,
      "surviv": 2734,
      "cers": 2735,
      "sof": 2736,
      "argent": 2737,
      "alban": 2738,
      "iti": 2739,
      "unit": 2740,
      "psy": 2741,
      "holid": 2742,
      "celebrates": 2743,
      "private": 2744,
      "boun": 2745,
      "dow": 2746,
      "gul": 2747,
      "lish": 2748,
      "pse": 2749,
      "spl": 2750,
      "disaster": 2751,
      "virgin": 2752,
      "villa": 2753,
      "hy": 2754,
      "now": 2755,
      "uries": 2756,
      "seiz": 2757,
      "riot": 2758,
      "eston": 2759,
      "worlds": 2760,
      "lawyers": 2761,
      "ferry": 2762,
      "spotlight": 2763,
      "hall": 2764,
      "viet": 2765,
      "ships": 2766,
      "offs": 2767,
      "suit": 2768,
      "accc": 2769,
      "fourth": 2770,
      "questioned": 2771,
      "latest": 2772,
      "construction": 2773,
      "pulls": 2774,
      "recomm": 2775,
      "edge": 2776,
      "oppn": 2777,
      "hopeful": 2778,
      "zeal": 2779,
      "deadly": 2780,
      "approach": 2781,
      "thanol": 2782,
      "economy": 2783,
      "vietnam": 2784,
      "dp": 2785,
      "vide": 2786,
      "oration": 2787,
      "ider": 2788,
      "prosec": 2789,
      "shake": 2790,
      "agree": 2791,
      "abc": 2792,
      "chance": 2793,
      "nett": 2794,
      "drops": 2795,
      "little": 2796,
      "taiwan": 2797,
      "tribunal": 2798,
      "bed": 2799,
      "gip": 2800,
      "psland": 2801,
      "mars": 2802,
      "web": 2803,
      "fees": 2804,
      "italy": 2805,
      "abbott": 2806,
      "prisoners": 2807,
      "population": 2808,
      "production": 2809,
      "roddick": 2810,
      "thailand": 2811,
      "gippsland": 2812,
      "ny": 2813,
      "wag": 2814,
      "alleg": 2815,
      "least": 2816,
      "deter": 2817,
      "ura": 2818,
      "outbreak": 2819,
      "criticised": 2820,
      "snu": 2821,
      "inform": 2822,
      "iles": 2823,
      "compens": 2824,
      "smith": 2825,
      "windies": 2826,
      "escapes": 2827,
      "forestry": 2828,
      "reveal": 2829,
      "condemns": 2830,
      "academ": 2831,
      "wounded": 2832,
      "bac": 2833,
      "ckey": 2834,
      "ston": 2835,
      "resp": 2836,
      "joy": 2837,
      "surf": 2838,
      "appear": 2839,
      "crop": 2840,
      "germany": 2841,
      "crocs": 2842,
      "retail": 2843,
      "fle": 2844,
      "gro": 2845,
      "hus": 2846,
      "pms": 2847,
      "probes": 2848,
      "funeral": 2849,
      "senator": 2850,
      "researchers": 2851,
      "structure": 2852,
      "volun": 2853,
      "apolog": 2854,
      "dig": 2855,
      "univers": 2856,
      "ander": 2857,
      "ape": 2858,
      "without": 2859,
      "arson": 2860,
      "intell": 2861,
      "levy": 2862,
      "bin": 2863,
      "ethanol": 2864,
      "nat": 2865,
      "scor": 2866,
      "aling": 2867,
      "rovers": 2868,
      "cho": 2869,
      "umps": 2870,
      "elling": 2871,
      "mos": 2872,
      "clearing": 2873,
      "crimin": 2874,
      "crowd": 2875,
      "wife": 2876,
      "football": 2877,
      "volunte": 2878,
      "sed": 2879,
      "chen": 2880,
      "del": 2881,
      "seat": 2882,
      "counter": 2883,
      "angry": 2884,
      "accuses": 2885,
      "tained": 2886,
      "general": 2887,
      "crown": 2888,
      "logging": 2889,
      "retirement": 2890,
      "arsenal": 2891,
      "intelligence": 2892,
      "nig": 2893,
      "inspe": 2894,
      "ova": 2895,
      "financ": 2896,
      "legis": 2897,
      "palm": 2898,
      "starts": 2899,
      "lifts": 2900,
      "cum": 2901,
      "hay": 2902,
      "jury": 2903,
      "vacc": 2904,
      "oral": 2905,
      "roc": 2906,
      "forec": 2907,
      "names": 2908,
      "european": 2909,
      "ets": 2910,
      "stat": 2911,
      "deput": 2912,
      "brings": 2913,
      "korean": 2914,
      "parties": 2915,
      "soon": 2916,
      "licence": 2917,
      "gallop": 2918,
      "defeat": 2919,
      "legisl": 2920,
      "bish": 2921,
      "wed": 2922,
      "eless": 2923,
      "common": 2924,
      "ferr": 2925,
      "delayed": 2926,
      "announce": 2927,
      "problem": 2928,
      "collapse": 2929,
      "helicopter": 2930,
      "respons": 2931,
      "resh": 2932,
      "tains": 2933,
      "cannab": 2934,
      "syri": 2935,
      "opening": 2936,
      "environment": 2937,
      "siege": 2938,
      "cannabis": 2939,
      "zes": 2940,
      "adop": 2941,
      "fiji": 2942,
      "assess": 2943,
      "hoping": 2944,
      "ulture": 2945,
      "tougher": 2946,
      "watchdog": 2947,
      "receive": 2948,
      "places": 2949,
      "treas": 2950,
      "refuses": 2951,
      "hanson": 2952,
      "nest": 2953,
      "ctors": 2954,
      "scre": 2955,
      "ength": 2956,
      "ski": 2957,
      "liberal": 2958,
      "nauru": 2959,
      "candidates": 2960,
      "albany": 2961,
      "sail": 2962,
      "roosters": 2963,
      "asks": 2964,
      "ology": 2965,
      "import": 2966,
      "boo": 2967,
      "underway": 2968,
      "task": 2969,
      "victorian": 2970,
      "proposed": 2971,
      "hails": 2972,
      "kimber": 2973,
      "cat": 2974,
      "mont": 2975,
      "muse": 2976,
      "yor": 2977,
      "zed": 2978,
      "zone": 2979,
      "erg": 2980,
      "oran": 2981,
      "asx": 2982,
      "sue": 2983,
      "feed": 2984,
      "blame": 2985,
      "aired": 2986,
      "davis": 2987,
      "attempted": 2988,
      "resume": 2989,
      "negot": 2990,
      "conservation": 2991,
      "mackay": 2992,
      "holiday": 2993,
      "niger": 2994,
      "wim": 2995,
      "arat": 2996,
      "oured": 2997,
      "forced": 2998,
      "sports": 2999,
      "agend": 3000,
      "aker": 3001,
      "defend": 3002,
      "secret": 3003,
      "crew": 3004,
      "prompt": 3005,
      "chemical": 3006,
      "zealand": 3007,
      "video": 3008,
      "deputy": 3009,
      "hav": 3010,
      "ony": 3011,
      "ald": 3012,
      "todd": 3013,
      "dev": 3014,
      "trip": 3015,
      "terrorist": 3016,
      "event": 3017,
      "resolution": 3018,
      "strategy": 3019,
      "compensation": 3020,
      "kimberley": 3021,
      "drow": 3022,
      "ices": 3023,
      "uncertain": 3024,
      "heavy": 3025,
      "libs": 3026,
      "waugh": 3027,
      "bring": 3028,
      "scott": 3029,
      "secure": 3030,
      "barri": 3031,
      "offered": 3032,
      "patient": 3033,
      "reforms": 3034,
      "employment": 3035,
      "journalists": 3036,
      "profits": 3037,
      "arrives": 3038,
      "mobile": 3039,
      "financial": 3040,
      "agenda": 3041,
      "arab": 3042,
      "ali": 3043,
      "launc": 3044,
      "sharon": 3045,
      "champions": 3046,
      "reaches": 3047,
      "citrus": 3048,
      "ified": 3049,
      "robbery": 3050,
      "ee": 3051,
      "gill": 3052,
      "jam": 3053,
      "kal": 3054,
      "lor": 3055,
      "mild": 3056,
      "pays": 3057,
      "tem": 3058,
      "vest": 3059,
      "orid": 3060,
      "resigns": 3061,
      "cars": 3062,
      "fee": 3063,
      "supports": 3064,
      "inson": 3065,
      "deny": 3066,
      "loods": 3067,
      "approval": 3068,
      "elections": 3069,
      "boyc": 3070,
      "radio": 3071,
      "bust": 3072,
      "hands": 3073,
      "mist": 3074,
      "pts": 3075,
      "pir": 3076,
      "wen": 3077,
      "ried": 3078,
      "lost": 3079,
      "aband": 3080,
      "fields": 3081,
      "pract": 3082,
      "socceroos": 3083,
      "environmental": 3084,
      "floods": 3085,
      "jack": 3086,
      "ways": 3087,
      "room": 3088,
      "overhaul": 3089,
      "spy": 3090,
      "ultur": 3091,
      "brum": 3092,
      "trio": 3093,
      "teenager": 3094,
      "councillors": 3095,
      "favour": 3096,
      "launceston": 3097,
      "cair": 3098,
      "dition": 3099,
      "dict": 3100,
      "accept": 3101,
      "plom": 3102,
      "bod": 3103,
      "sett": 3104,
      "injuries": 3105,
      "diplom": 3106,
      "soft": 3107,
      "creat": 3108,
      "fru": 3109,
      "fresh": 3110,
      "jsters": 3111,
      "kash": 3112,
      "mort": 3113,
      "ata": 3114,
      "isla": 3115,
      "semi": 3116,
      "shi": 3117,
      "agass": 3118,
      "ware": 3119,
      "lide": 3120,
      "considered": 3121,
      "hamas": 3122,
      "glory": 3123,
      "steps": 3124,
      "valley": 3125,
      "overseas": 3126,
      "clijsters": 3127,
      "museum": 3128,
      "tu": 3129,
      "owner": 3130,
      "testing": 3131,
      "millions": 3132,
      "harbour": 3133,
      "thorpe": 3134,
      "number": 3135,
      "limit": 3136,
      "camer": 3137,
      "hardie": 3138,
      "pilot": 3139,
      "await": 3140,
      "cree": 3141,
      "prise": 3142,
      "infra": 3143,
      "conduct": 3144,
      "ular": 3145,
      "exerc": 3146,
      "consum": 3147,
      "vanstone": 3148,
      "advice": 3149,
      "levels": 3150,
      "bhp": 3151,
      "downs": 3152,
      "dry": 3153,
      "pers": 3154,
      "wash": 3155,
      "ister": 3156,
      "ieves": 3157,
      "mary": 3158,
      "troop": 3159,
      "polls": 3160,
      "plea": 3161,
      "effort": 3162,
      "recovery": 3163,
      "nasa": 3164,
      "infrastructure": 3165,
      "ffer": 3166,
      "forward": 3167,
      "sector": 3168,
      "afo": 3169,
      "powell": 3170,
      "secures": 3171,
      "prize": 3172,
      "cruise": 3173,
      "girls": 3174,
      "dragons": 3175,
      "doping": 3176,
      "agassi": 3177,
      "bom": 3178,
      "cau": 3179,
      "egy": 3180,
      "gle": 3181,
      "ighter": 3182,
      "jobless": 3183,
      "ireland": 3184,
      "electric": 3185,
      "history": 3186,
      "sends": 3187,
      "skills": 3188,
      "recru": 3189,
      "olog": 3190,
      "urer": 3191,
      "controvers": 3192,
      "missile": 3193,
      "fishers": 3194,
      "passes": 3195,
      "justice": 3196,
      "giant": 3197,
      "resources": 3198,
      "predicted": 3199,
      "hum": 3200,
      "ible": 3201,
      "mess": 3202,
      "nar": 3203,
      "acher": 3204,
      "blames": 3205,
      "sentenced": 3206,
      "debt": 3207,
      "college": 3208,
      "tribute": 3209,
      "oy": 3210,
      "erup": 3211,
      "ett": 3212,
      "clears": 3213,
      "swimm": 3214,
      "releases": 3215,
      "harvest": 3216,
      "ultural": 3217,
      "kashmir": 3218,
      "dge": 3219,
      "navy": 3220,
      "tox": 3221,
      "trap": 3222,
      "banks": 3223,
      "contest": 3224,
      "missions": 3225,
      "reven": 3226,
      "communities": 3227,
      "producers": 3228,
      "myst": 3229,
      "resignation": 3230,
      "elderly": 3231,
      "allegations": 3232,
      "information": 3233,
      "fruit": 3234,
      "egypt": 3235,
      "dre": 3236,
      "ras": 3237,
      "ari": 3238,
      "stall": 3239,
      "throw": 3240,
      "comment": 3241,
      "miners": 3242,
      "meets": 3243,
      "investigates": 3244,
      "mildura": 3245,
      "fta": 3246,
      "pig": 3247,
      "send": 3248,
      "ilities": 3249,
      "administ": 3250,
      "geor": 3251,
      "couple": 3252,
      "ctic": 3253,
      "mish": 3254,
      "goor": 3255,
      "damages": 3256,
      "extended": 3257,
      "check": 3258,
      "molik": 3259,
      "forecast": 3260,
      "administr": 3261,
      "mum": 3262,
      "pun": 3263,
      "oppose": 3264,
      "spread": 3265,
      "bodies": 3266,
      "fines": 3267,
      "schum": 3268,
      "caps": 3269,
      "birds": 3270,
      "suspic": 3271,
      "agrees": 3272,
      "madrid": 3273,
      "independent": 3274,
      "gulf": 3275,
      "legislation": 3276,
      "negoti": 3277,
      "boycott": 3278,
      "ience": 3279,
      "uds": 3280,
      "encou": 3281,
      "competition": 3282,
      "quick": 3283,
      "outback": 3284,
      "going": 3285,
      "bushrangers": 3286,
      "honoured": 3287,
      "ballarat": 3288,
      "remember": 3289,
      "nomin": 3290,
      "across": 3291,
      "akar": 3292,
      "leading": 3293,
      "arms": 3294,
      "serious": 3295,
      "draft": 3296,
      "olympics": 3297,
      "praise": 3298,
      "voy": 3299,
      "greater": 3300,
      "director": 3301,
      "golf": 3302,
      "arafat": 3303,
      "mishap": 3304,
      "ki": 3305,
      "lan": 3306,
      "sim": 3307,
      "around": 3308,
      "tou": 3309,
      "today": 3310,
      "charity": 3311,
      "elly": 3312,
      "rick": 3313,
      "invol": 3314,
      "patrol": 3315,
      "behav": 3316,
      "middle": 3317,
      "canada": 3318,
      "paedophile": 3319,
      "aw": 3320,
      "pla": 3321,
      "scr": 3322,
      "ona": 3323,
      "asing": 3324,
      "asian": 3325,
      "proves": 3326,
      "cool": 3327,
      "settle": 3328,
      "condition": 3329,
      "mcgr": 3330,
      "cyclist": 3331,
      "homeless": 3332,
      "sacked": 3333,
      "ordered": 3334,
      "bishop": 3335,
      "mystery": 3336,
      "yach": 3337,
      "ided": 3338,
      "bling": 3339,
      "hostages": 3340,
      "skip": 3341,
      "announced": 3342,
      "handed": 3343,
      "nursing": 3344,
      "tamworth": 3345,
      "earthquake": 3346,
      "execut": 3347,
      "commonwealth": 3348,
      "bomber": 3349,
      "ii": 3350,
      "jump": 3351,
      "suffer": 3352,
      "ignor": 3353,
      "shopping": 3354,
      "dutch": 3355,
      "complaints": 3356,
      "penalty": 3357,
      "exploration": 3358,
      "ded": 3359,
      "rens": 3360,
      "inking": 3361,
      "arctic": 3362,
      "alive": 3363,
      "semis": 3364,
      "taking": 3365,
      "subs": 3366,
      "sexual": 3367,
      "fishermen": 3368,
      "bashing": 3369,
      "journalist": 3370,
      "months": 3371,
      "schumacher": 3372,
      "hang": 3373,
      "iour": 3374,
      "lets": 3375,
      "decl": 3376,
      "deliver": 3377,
      "scot": 3378,
      "ferg": 3379,
      "bombings": 3380,
      "stranded": 3381,
      "swed": 3382,
      "smash": 3383,
      "losses": 3384,
      "dont": 3385,
      "tort": 3386,
      "ond": 3387,
      "hockey": 3388,
      "trail": 3389,
      "chiefs": 3390,
      "seni": 3391,
      "premiers": 3392,
      "maintain": 3393,
      "thrill": 3394,
      "kangaroos": 3395,
      "university": 3396,
      "eg": 3397,
      "ka": 3398,
      "mult": 3399,
      "person": 3400,
      "tops": 3401,
      "stam": 3402,
      "rebel": 3403,
      "left": 3404,
      "leeds": 3405,
      "usion": 3406,
      "ential": 3407,
      "marks": 3408,
      "phy": 3409,
      "milan": 3410,
      "tenn": 3411,
      "celebrate": 3412,
      "flooding": 3413,
      "commissioner": 3414,
      "canadian": 3415,
      "chairman": 3416,
      "wagga": 3417,
      "creek": 3418,
      "mcgrath": 3419,
      "due": 3420,
      "kiw": 3421,
      "tank": 3422,
      "xter": 3423,
      "leban": 3424,
      "debut": 3425,
      "sept": 3426,
      "guide": 3427,
      "breast": 3428,
      "riverland": 3429,
      "bund": 3430,
      "muslim": 3431,
      "magist": 3432,
      "refuge": 3433,
      "destroy": 3434,
      "birthday": 3435,
      "unveils": 3436,
      "dna": 3437,
      "met": 3438,
      "yle": 3439,
      "advis": 3440,
      "contain": 3441,
      "keen": 3442,
      "warra": 3443,
      "english": 3444,
      "baxter": 3445,
      "appointment": 3446,
      "resumes": 3447,
      "york": 3448,
      "kalgoor": 3449,
      "suspicious": 3450,
      "kiwis": 3451,
      "atto": 3452,
      "ich": 3453,
      "ison": 3454,
      "advan": 3455,
      "prove": 3456,
      "ples": 3457,
      "iance": 3458,
      "assuran": 3459,
      "ounds": 3460,
      "wake": 3461,
      "meas": 3462,
      "workplace": 3463,
      "surpris": 3464,
      "turk": 3465,
      "trust": 3466,
      "crimes": 3467,
      "focuses": 3468,
      "kalgoorlie": 3469,
      "assurances": 3470,
      "sf": 3471,
      "enough": 3472,
      "nings": 3473,
      "strip": 3474,
      "visa": 3475,
      "ruled": 3476,
      "taxi": 3477,
      "extends": 3478,
      "toxic": 3479,
      "fights": 3480,
      "aco": 3481,
      "rocks": 3482,
      "separ": 3483,
      "become": 3484,
      "aps": 3485,
      "appoints": 3486,
      "fif": 3487,
      "trials": 3488,
      "century": 3489,
      "remote": 3490,
      "career": 3491,
      "plot": 3492,
      "clashes": 3493,
      "pleased": 3494,
      "survives": 3495,
      "ibility": 3496,
      "toddler": 3497,
      "exercise": 3498,
      "ku": 3499,
      "mun": 3500,
      "ening": 3501,
      "refer": 3502,
      "atah": 3503,
      "deli": 3504,
      "detained": 3505,
      "thom": 3506,
      "does": 3507,
      "sures": 3508,
      "scrap": 3509,
      "frustr": 3510,
      "investment": 3511,
      "broome": 3512,
      "ughter": 3513,
      "iranian": 3514,
      "tiger": 3515,
      "convicted": 3516,
      "organis": 3517,
      "orange": 3518,
      "brumbies": 3519,
      "behaviour": 3520,
      "gil": 3521,
      "greg": 3522,
      "kie": 3523,
      "mach": 3524,
      "estate": 3525,
      "abdu": 3526,
      "boks": 3527,
      "worried": 3528,
      "marsh": 3529,
      "redbacks": 3530,
      "ift": 3531,
      "childrens": 3532,
      "opposes": 3533,
      "sky": 3534,
      "racts": 3535,
      "chamber": 3536,
      "prince": 3537,
      "cia": 3538,
      "kno": 3539,
      "intro": 3540,
      "alter": 3541,
      "lot": 3542,
      "ceo": 3543,
      "waratah": 3544,
      "surprise": 3545,
      "receives": 3546,
      "dangerous": 3547,
      "barrier": 3548,
      "james": 3549,
      "bundab": 3550,
      "introdu": 3551,
      "kong": 3552,
      "tafe": 3553,
      "among": 3554,
      "code": 3555,
      "ensive": 3556,
      "disrup": 3557,
      "omba": 3558,
      "bombs": 3559,
      "falling": 3560,
      "annan": 3561,
      "stead": 3562,
      "suspension": 3563,
      "slaughter": 3564,
      "wrong": 3565,
      "refused": 3566,
      "celtic": 3567,
      "split": 3568,
      "snub": 3569,
      "dream": 3570,
      "delivers": 3571,
      "bundaberg": 3572,
      "hack": 3573,
      "arts": 3574,
      "unity": 3575,
      "ribut": 3576,
      "iron": 3577,
      "demons": 3578,
      "annivers": 3579,
      "streak": 3580,
      "dpp": 3581,
      "anniversary": 3582,
      "towards": 3583,
      "applic": 3584,
      "offences": 3585,
      "sues": 3586,
      "actor": 3587,
      "blitz": 3588,
      "airline": 3589,
      "weight": 3590,
      "few": 3591,
      "feel": 3592,
      "womans": 3593,
      "crops": 3594,
      "speculation": 3595,
      "panthers": 3596,
      "following": 3597,
      "vaccine": 3598,
      "islamic": 3599,
      "ize": 3600,
      "mers": 3601,
      "arra": 3602,
      "shine": 3603,
      "wary": 3604,
      "umph": 3605,
      "disability": 3606,
      "goal": 3607,
      "schoolies": 3608,
      "reduce": 3609,
      "unveil": 3610,
      "stitution": 3611,
      "scores": 3612,
      "turkish": 3613,
      "cath": 3614,
      "rare": 3615,
      "wet": 3616,
      "iting": 3617,
      "chin": 3618,
      "istic": 3619,
      "triumph": 3620,
      "scud": 3621,
      "strength": 3622,
      "considering": 3623,
      "teams": 3624,
      "raiders": 3625,
      "locust": 3626,
      "apologises": 3627,
      "syria": 3628,
      "hong": 3629,
      "ja": 3630,
      "iny": 3631,
      "only": 3632,
      "seen": 3633,
      "irish": 3634,
      "progress": 3635,
      "uly": 3636,
      "sug": 3637,
      "assoc": 3638,
      "scandal": 3639,
      "opener": 3640,
      "mening": 3641,
      "guns": 3642,
      "ification": 3643,
      "flying": 3644,
      "bashir": 3645,
      "flags": 3646,
      "horse": 3647,
      "encing": 3648,
      "martin": 3649,
      "love": 3650,
      "mex": 3651,
      "rann": 3652,
      "lear": 3653,
      "nears": 3654,
      "combat": 3655,
      "swim": 3656,
      "extend": 3657,
      "message": 3658,
      "mexic": 3659,
      "aut": 3660,
      "bath": 3661,
      "sit": 3662,
      "arrive": 3663,
      "tries": 3664,
      "closed": 3665,
      "visits": 3666,
      "darfur": 3667,
      "prepared": 3668,
      "micro": 3669,
      "collision": 3670,
      "hayden": 3671,
      "erupts": 3672,
      "waratahs": 3673,
      "equ": 3674,
      "fing": 3675,
      "vid": 3676,
      "abu": 3677,
      "lying": 3678,
      "bushfires": 3679,
      "nightclub": 3680,
      "duty": 3681,
      "sweep": 3682,
      "academic": 3683,
      "hs": 3684,
      "sight": 3685,
      "vention": 3686,
      "wn": 3687,
      "ena": 3688,
      "islands": 3689,
      "asion": 3690,
      "irc": 3691,
      "grabs": 3692,
      "cycle": 3693,
      "arters": 3694,
      "regul": 3695,
      "votes": 3696,
      "extension": 3697,
      "bike": 3698,
      "halt": 3699,
      "soren": 3700,
      "audit": 3701,
      "wimbled": 3702,
      "thieves": 3703,
      "wave": 3704,
      "changed": 3705,
      "present": 3706,
      "demol": 3707,
      "golden": 3708,
      "seekers": 3709,
      "uka": 3710,
      "caut": 3711,
      "clark": 3712,
      "companies": 3713,
      "rossi": 3714,
      "transfer": 3715,
      "destro": 3716,
      "greek": 3717,
      "gains": 3718,
      "illawarra": 3719,
      "cairns": 3720,
      "wimbledon": 3721,
      "dau": 3722,
      "rent": 3723,
      "elty": 3724,
      "slump": 3725,
      "know": 3726,
      "politics": 3727,
      "champs": 3728,
      "rumsf": 3729,
      "subsid": 3730,
      "coffs": 3731,
      "table": 3732,
      "wm": 3733,
      "wre": 3734,
      "wid": 3735,
      "ero": 3736,
      "ords": 3737,
      "uses": 3738,
      "clp": 3739,
      "flat": 3740,
      "farmer": 3741,
      "buil": 3742,
      "facility": 3743,
      "verdict": 3744,
      "sniff": 3745,
      "gener": 3746,
      "longong": 3747,
      "location": 3748,
      "evacuated": 3749,
      "wollongong": 3750,
      "survivors": 3751,
      "rsp": 3752,
      "alone": 3753,
      "forman": 3754,
      "chi": 3755,
      "deploy": 3756,
      "confirm": 3757,
      "marri": 3758,
      "door": 3759,
      "threats": 3760,
      "slam": 3761,
      "letter": 3762,
      "submissions": 3763,
      "links": 3764,
      "struggling": 3765,
      "route": 3766,
      "johnson": 3767,
      "rspca": 3768,
      "cs": 3769,
      "seize": 3770,
      "nets": 3771,
      "docum": 3772,
      "cancell": 3773,
      "auction": 3774,
      "very": 3775,
      "apple": 3776,
      "electoral": 3777,
      "increases": 3778,
      "kids": 3779,
      "dockers": 3780,
      "complete": 3781,
      "veterans": 3782,
      "skipper": 3783,
      "cold": 3784,
      "hic": 3785,
      "master": 3786,
      "vent": 3787,
      "arth": 3788,
      "aries": 3789,
      "aly": 3790,
      "store": 3791,
      "usd": 3792,
      "ortion": 3793,
      "taken": 3794,
      "worry": 3795,
      "landing": 3796,
      "contam": 3797,
      "scam": 3798,
      "area": 3799,
      "bara": 3800,
      "awarded": 3801,
      "heroin": 3802,
      "assistance": 3803,
      "discovery": 3804,
      "argentina": 3805,
      "scrut": 3806,
      "sorenstam": 3807,
      "cull": 3808,
      "nia": 3809,
      "pie": 3810,
      "opp": 3811,
      "resort": 3812,
      "parks": 3813,
      "commod": 3814,
      "firmed": 3815,
      "guards": 3816,
      "regions": 3817,
      "ponders": 3818,
      "beaten": 3819,
      "politicians": 3820,
      "divers": 3821,
      "falcon": 3822,
      "reserve": 3823,
      "spirit": 3824,
      "rumsfeld": 3825,
      "ech": 3826,
      "kies": 3827,
      "tw": 3828,
      "tweed": 3829,
      "aces": 3830,
      "agers": 3831,
      "antarctic": 3832,
      "attacked": 3833,
      "growing": 3834,
      "breakthrough": 3835,
      "making": 3836,
      "casts": 3837,
      "projects": 3838,
      "crossing": 3839,
      "citiz": 3840,
      "irrigators": 3841,
      "aur": 3842,
      "kin": 3843,
      "mce": 3844,
      "nds": 3845,
      "pap": 3846,
      "paper": 3847,
      "rice": 3848,
      "sand": 3849,
      "online": 3850,
      "anch": 3851,
      "recall": 3852,
      "using": 3853,
      "confirmed": 3854,
      "liby": 3855,
      "ecks": 3856,
      "invasion": 3857,
      "medal": 3858,
      "helping": 3859,
      "burning": 3860,
      "hosts": 3861,
      "belt": 3862,
      "huge": 3863,
      "silver": 3864,
      "american": 3865,
      "abandon": 3866,
      "caught": 3867,
      "pic": 3868,
      "stamp": 3869,
      "reopen": 3870,
      "request": 3871,
      "rog": 3872,
      "amnest": 3873,
      "afp": 3874,
      "warm": 3875,
      "newsp": 3876,
      "derail": 3877,
      "athon": 3878,
      "weigh": 3879,
      "gerald": 3880,
      "areas": 3881,
      "fox": 3882,
      "showdown": 3883,
      "wales": 3884,
      "diam": 3885,
      "governor": 3886,
      "lobster": 3887,
      "craft": 3888,
      "lists": 3889,
      "vail": 3890,
      "ales": 3891,
      "ington": 3892,
      "checks": 3893,
      "abatto": 3894,
      "developer": 3895,
      "hib": 3896,
      "panel": 3897,
      "quarant": 3898,
      "henin": 3899,
      "smuggling": 3900,
      "technology": 3901,
      "abduction": 3902,
      "abattoir": 3903,
      "rush": 3904,
      "yan": 3905,
      "stays": 3906,
      "losing": 3907,
      "coming": 3908,
      "quiet": 3909,
      "centres": 3910,
      "reported": 3911,
      "florid": 3912,
      "hunger": 3913,
      "brog": 3914,
      "voters": 3915,
      "network": 3916,
      "salv": 3917,
      "pilbara": 3918,
      "customs": 3919,
      "massive": 3920,
      "examine": 3921,
      "measures": 3922,
      "amnesty": 3923,
      "cot": 3924,
      "ife": 3925,
      "lun": 3926,
      "pa": 3927,
      "uel": 3928,
      "reward": 3929,
      "rian": 3930,
      "impress": 3931,
      "termin": 3932,
      "shires": 3933,
      "derby": 3934,
      "hospitalised": 3935,
      "region": 3936,
      "engine": 3937,
      "dub": 3938,
      "warnings": 3939,
      "weeks": 3940,
      "speeding": 3941,
      "potential": 3942,
      "sanctions": 3943,
      "resource": 3944,
      "trouble": 3945,
      "malaysia": 3946,
      "prosecut": 3947,
      "refugees": 3948,
      "steady": 3949,
      "destroys": 3950,
      "covers": 3951,
      "gard": 3952,
      "jakar": 3953,
      "rat": 3954,
      "sir": 3955,
      "tape": 3956,
      "unrest": 3957,
      "mann": 3958,
      "agency": 3959,
      "grape": 3960,
      "capital": 3961,
      "grants": 3962,
      "barca": 3963,
      "speaks": 3964,
      "stops": 3965,
      "challenges": 3966,
      "knife": 3967,
      "flag": 3968,
      "volunteers": 3969,
      "senior": 3970,
      "magistrate": 3971,
      "fifth": 3972,
      "florida": 3973,
      "bull": 3974,
      "cb": 3975,
      "fem": 3976,
      "sites": 3977,
      "zar": 3978,
      "dete": 3979,
      "depart": 3980,
      "plus": 3981,
      "manslaughter": 3982,
      "outlines": 3983,
      "winner": 3984,
      "assass": 3985,
      "marathon": 3986,
      "ween": 3987,
      "rival": 3988,
      "triple": 3989,
      "anglic": 3990,
      "bulk": 3991,
      "supermarket": 3992,
      "drinking": 3993,
      "dropped": 3994,
      "daven": 3995,
      "jakarta": 3996,
      "eve": 3997,
      "pace": 3998,
      "paid": 3999,
      "ror": 4000,
      "sour": 4001,
      "sick": 4002,
      "tab": 4003,
      "ature": 4004,
      "ambass": 4005,
      "imports": 4006,
      "tage": 4007,
      "quarters": 4008,
      "liqu": 4009,
      "disappointed": 4010,
      "labors": 4011,
      "elson": 4012,
      "pakistani": 4013,
      "pollution": 4014,
      "vene": 4015,
      "increased": 4016,
      "lara": 4017,
      "hike": 4018,
      "qualify": 4019,
      "gallery": 4020,
      "ender": 4021,
      "aser": 4022,
      "laid": 4023,
      "sever": 4024,
      "allies": 4025,
      "withdra": 4026,
      "milk": 4027,
      "prior": 4028,
      "operators": 4029,
      "crowds": 4030,
      "known": 4031,
      "freight": 4032,
      "vaile": 4033,
      "brogden": 4034,
      "cbd": 4035,
      "withdrawal": 4036,
      "ffit": 4037,
      "iban": 4038,
      "lash": 4039,
      "langer": 4040,
      "mens": 4041,
      "wers": 4042,
      "stal": 4043,
      "thing": 4044,
      "congo": 4045,
      "spin": 4046,
      "compe": 4047,
      "chances": 4048,
      "calm": 4049,
      "snap": 4050,
      "fitness": 4051,
      "netball": 4052,
      "mitsub": 4053,
      "refle": 4054,
      "commitment": 4055,
      "glad": 4056,
      "ronal": 4057,
      "scotland": 4058,
      "dubbo": 4059,
      "mitsubish": 4060,
      "sights": 4061,
      "alla": 4062,
      "lease": 4063,
      "unemployment": 4064,
      "opport": 4065,
      "ply": 4066,
      "quiz": 4067,
      "expects": 4068,
      "position": 4069,
      "onga": 4070,
      "trig": 4071,
      "heading": 4072,
      "murdered": 4073,
      "failure": 4074,
      "findings": 4075,
      "shareholders": 4076,
      "feared": 4077,
      "tunnel": 4078,
      "greece": 4079,
      "outside": 4080,
      "stanhope": 4081,
      "cathol": 4082,
      "dun": 4083,
      "flee": 4084,
      "kicks": 4085,
      "nad": 4086,
      "oco": 4087,
      "py": 4088,
      "tom": 4089,
      "retain": 4090,
      "icit": 4091,
      "acts": 4092,
      "isation": 4093,
      "ched": 4094,
      "lain": 4095,
      "couns": 4096,
      "kewell": 4097,
      "result": 4098,
      "outlook": 4099,
      "withdraws": 4100,
      "hoo": 4101,
      "doz": 4102,
      "iffer": 4103,
      "remind": 4104,
      "payments": 4105,
      "colomb": 4106,
      "gambling": 4107,
      "between": 4108,
      "nurse": 4109,
      "looming": 4110,
      "removal": 4111,
      "gregan": 4112,
      "davenport": 4113,
      "hid": 4114,
      "mind": 4115,
      "migr": 4116,
      "tips": 4117,
      "wwi": 4118,
      "ances": 4119,
      "aran": 4120,
      "repair": 4121,
      "seal": 4122,
      "ime": 4123,
      "shed": 4124,
      "exhib": 4125,
      "athle": 4126,
      "webs": 4127,
      "performan": 4128,
      "labour": 4129,
      "damaged": 4130,
      "species": 4131,
      "celebrations": 4132,
      "quarie": 4133,
      "macquarie": 4134,
      "luck": 4135,
      "consultation": 4136,
      "association": 4137,
      "falconio": 4138,
      "female": 4139,
      "fill": 4140,
      "kick": 4141,
      "rad": 4142,
      "uss": 4143,
      "ride": 4144,
      "cepts": 4145,
      "suff": 4146,
      "busy": 4147,
      "answers": 4148,
      "accidents": 4149,
      "coastal": 4150,
      "wanted": 4151,
      "saddams": 4152,
      "photo": 4153,
      "renews": 4154,
      "prevent": 4155,
      "sinks": 4156,
      "torture": 4157,
      "organisers": 4158,
      "hackett": 4159,
      "bot": 4160,
      "kelly": 4161,
      "zi": 4162,
      "zoning": 4163,
      "leh": 4164,
      "ola": 4165,
      "agan": 4166,
      "attract": 4167,
      "contracts": 4168,
      "identify": 4169,
      "prefer": 4170,
      "failed": 4171,
      "posts": 4172,
      "cambod": 4173,
      "advoc": 4174,
      "quarter": 4175,
      "granted": 4176,
      "hampton": 4177,
      "selection": 4178,
      "kidnapped": 4179,
      "rocket": 4180,
      "electricity": 4181,
      "hat": 4182,
      "jaf": 4183,
      "sons": 4184,
      "wis": 4185,
      "insp": 4186,
      "toow": 4187,
      "rogers": 4188,
      "ester": 4189,
      "ession": 4190,
      "winter": 4191,
      "uefa": 4192,
      "facilities": 4193,
      "relations": 4194,
      "battles": 4195,
      "flock": 4196,
      "najaf": 4197,
      "lankan": 4198,
      "brief": 4199,
      "encoura": 4200,
      "mcewen": 4201,
      "mitsubishi": 4202,
      "toowo": 4203,
      "eases": 4204,
      "nod": 4205,
      "oce": 4206,
      "plast": 4207,
      "zy": 4208,
      "inm": 4209,
      "icc": 4210,
      "this": 4211,
      "serena": 4212,
      "fever": 4213,
      "graz": 4214,
      "engers": 4215,
      "payers": 4216,
      "doubles": 4217,
      "breaking": 4218,
      "rockhampton": 4219,
      "kyo": 4220,
      "springs": 4221,
      "touch": 4222,
      "thriller": 4223,
      "tennis": 4224,
      "bing": 4225,
      "eels": 4226,
      "hed": 4227,
      "pi": 4228,
      "sink": 4229,
      "ering": 4230,
      "rooney": 4231,
      "ram": 4232,
      "continu": 4233,
      "injures": 4234,
      "create": 4235,
      "supporters": 4236,
      "hamper": 4237,
      "militant": 4238,
      "proteas": 4239,
      "peacekeep": 4240,
      "longer": 4241,
      "judic": 4242,
      "proposes": 4243,
      "harden": 4244,
      "activists": 4245,
      "treasurer": 4246,
      "ambassador": 4247,
      "toowoomba": 4248,
      "bure": 4249,
      "ccal": 4250,
      "dia": 4251,
      "slip": 4252,
      "sting": 4253,
      "stro": 4254,
      "deep": 4255,
      "adjour": 4256,
      "cease": 4257,
      "warr": 4258,
      "coo": 4259,
      "aver": 4260,
      "guaran": 4261,
      "investors": 4262,
      "maker": 4263,
      "donations": 4264,
      "operations": 4265,
      "cyclists": 4266,
      "mourns": 4267,
      "pullout": 4268,
      "championships": 4269,
      "climate": 4270,
      "habib": 4271,
      "veteran": 4272,
      "swimming": 4273,
      "ococcal": 4274,
      "cops": 4275,
      "ection": 4276,
      "jun": 4277,
      "pest": 4278,
      "va": 4279,
      "vin": 4280,
      "vandal": 4281,
      "enters": 4282,
      "nepal": 4283,
      "anda": 4284,
      "oted": 4285,
      "weak": 4286,
      "aving": 4287,
      "odds": 4288,
      "murali": 4289,
      "verge": 4290,
      "mond": 4291,
      "voting": 4292,
      "mcgee": 4293,
      "solar": 4294,
      "billing": 4295,
      "camera": 4296,
      "casino": 4297,
      "practice": 4298,
      "trapped": 4299,
      "gilchrist": 4300,
      "newspaper": 4301,
      "gladstone": 4302,
      "performance": 4303,
      "bureau": 4304,
      "csi": 4305,
      "eth": 4306,
      "nbl": 4307,
      "self": 4308,
      "vau": 4309,
      "alliance": 4310,
      "backing": 4311,
      "misses": 4312,
      "cerem": 4313,
      "tures": 4314,
      "taliban": 4315,
      "payout": 4316,
      "meetings": 4317,
      "goldfields": 4318,
      "snatch": 4319,
      "billion": 4320,
      "venus": 4321,
      "riverina": 4322,
      "borg": 4323,
      "smoke": 4324,
      "springborg": 4325,
      "declares": 4326,
      "declared": 4327,
      "capture": 4328,
      "status": 4329,
      "consumer": 4330,
      "knock": 4331,
      "scrutiny": 4332,
      "geraldton": 4333,
      "cin": 4334,
      "fs": 4335,
      "han": 4336,
      "pas": 4337,
      "wish": 4338,
      "requ": 4339,
      "accepts": 4340,
      "conne": 4341,
      "constitution": 4342,
      "compu": 4343,
      "iety": 4344,
      "earns": 4345,
      "theat": 4346,
      "design": 4347,
      "brother": 4348,
      "issued": 4349,
      "bio": 4350,
      "member": 4351,
      "kerry": 4352,
      "lifes": 4353,
      "fisherman": 4354,
      "bolster": 4355,
      "affected": 4356,
      "deportation": 4357,
      "smuggl": 4358,
      "ferrari": 4359,
      "wmd": 4360,
      "computer": 4361,
      "fate": 4362,
      "fighter": 4363,
      "pick": 4364,
      "inks": 4365,
      "initi": 4366,
      "ene": 4367,
      "replace": 4368,
      "account": 4369,
      "ramp": 4370,
      "enty": 4371,
      "beats": 4372,
      "spurs": 4373,
      "coca": 4374,
      "pokies": 4375,
      "backpack": 4376,
      "assie": 4377,
      "killers": 4378,
      "communic": 4379,
      "bigger": 4380,
      "priest": 4381,
      "bai": 4382,
      "dolph": 4383,
      "summer": 4384,
      "angered": 4385,
      "lennon": 4386,
      "tuna": 4387,
      "reduction": 4388,
      "evacuation": 4389,
      "conviction": 4390,
      "friendly": 4391,
      "creates": 4392,
      "yacht": 4393,
      "diamond": 4394,
      "dozens": 4395,
      "lehmann": 4396,
      "csiro": 4397,
      "ato": 4398,
      "aqu": 4399,
      "brain": 4400,
      "hind": 4401,
      "pover": 4402,
      "input": 4403,
      "replac": 4404,
      "iter": 4405,
      "laments": 4406,
      "load": 4407,
      "andals": 4408,
      "resident": 4409,
      "abortion": 4410,
      "burns": 4411,
      "burma": 4412,
      "while": 4413,
      "runs": 4414,
      "single": 4415,
      "ukra": 4416,
      "scientist": 4417,
      "ganguly": 4418,
      "saving": 4419,
      "jetstar": 4420,
      "dominate": 4421,
      "controversial": 4422,
      "meningococcal": 4423,
      "catholic": 4424,
      "suffers": 4425,
      "ocean": 4426,
      "path": 4427,
      "swor": 4428,
      "whe": 4429,
      "asio": 4430,
      "confl": 4431,
      "exc": 4432,
      "airlines": 4433,
      "surplus": 4434,
      "answer": 4435,
      "underworld": 4436,
      "deficit": 4437,
      "fraser": 4438,
      "bullets": 4439,
      "threatened": 4440,
      "sacking": 4441,
      "championship": 4442,
      "boomers": 4443,
      "recognised": 4444,
      "webber": 4445,
      "poverty": 4446,
      "awi": 4447,
      "bak": 4448,
      "mail": 4449,
      "pes": 4450,
      "swit": 4451,
      "sells": 4452,
      "tall": 4453,
      "wmc": 4454,
      "atives": 4455,
      "cha": 4456,
      "chip": 4457,
      "deleg": 4458,
      "urst": 4459,
      "raps": 4460,
      "sey": 4461,
      "estone": 4462,
      "optim": 4463,
      "indies": 4464,
      "withdraw": 4465,
      "canker": 4466,
      "seeking": 4467,
      "register": 4468,
      "playing": 4469,
      "porter": 4470,
      "costly": 4471,
      "hunting": 4472,
      "cali": 4473,
      "sentencing": 4474,
      "bench": 4475,
      "queen": 4476,
      "voice": 4477,
      "apology": 4478,
      "pitt": 4479,
      "struggle": 4480,
      "premiership": 4481,
      "cautious": 4482,
      "marriage": 4483,
      "website": 4484,
      "hardenne": 4485,
      "vaughan": 4486,
      "pul": 4487,
      "vie": 4488,
      "total": 4489,
      "oud": 4490,
      "accommod": 4491,
      "urgent": 4492,
      "gear": 4493,
      "planes": 4494,
      "fired": 4495,
      "tradition": 4496,
      "ecst": 4497,
      "restaur": 4498,
      "fern": 4499,
      "moved": 4500,
      "swiss": 4501,
      "confusion": 4502,
      "gunners": 4503,
      "judges": 4504,
      "maintains": 4505,
      "condemn": 4506,
      "provide": 4507,
      "renew": 4508,
      "axe": 4509,
      "terminal": 4510,
      "kinson": 4511,
      "enger": 4512,
      "reme": 4513,
      "recycling": 4514,
      "unfair": 4515,
      "spray": 4516,
      "iraqs": 4517,
      "undergo": 4518,
      "epa": 4519,
      "ption": 4520,
      "centrelink": 4521,
      "broth": 4522,
      "abba": 4523,
      "solution": 4524,
      "violent": 4525,
      "social": 4526,
      "survive": 4527,
      "john": 4528,
      "quality": 4529,
      "bathurst": 4530,
      "deployment": 4531,
      "califor": 4532,
      "dust": 4533,
      "dangers": 4534,
      "lpga": 4535,
      "pin": 4536,
      "pent": 4537,
      "zoo": 4538,
      "tock": 4539,
      "ica": 4540,
      "seats": 4541,
      "shel": 4542,
      "agon": 4543,
      "living": 4544,
      "marines": 4545,
      "waters": 4546,
      "buys": 4547,
      "hung": 4548,
      "makers": 4549,
      "ffle": 4550,
      "handling": 4551,
      "resolve": 4552,
      "detainee": 4553,
      "juve": 4554,
      "satell": 4555,
      "recommend": 4556,
      "lebanon": 4557,
      "ukraine": 4558,
      "based": 4559,
      "cultural": 4560,
      "gust": 4561,
      "harm": 4562,
      "vow": 4563,
      "eness": 4564,
      "edges": 4565,
      "asic": 4566,
      "spons": 4567,
      "uls": 4568,
      "mines": 4569,
      "joint": 4570,
      "mooted": 4571,
      "fron": 4572,
      "campus": 4573,
      "campbell": 4574,
      "biggest": 4575,
      "gamb": 4576,
      "rett": 4577,
      "curfew": 4578,
      "doesnt": 4579,
      "anglican": 4580,
      "ecstasy": 4581,
      "gabba": 4582,
      "hiv": 4583,
      "kir": 4584,
      "sust": 4585,
      "trick": 4586,
      "vandals": 4587,
      "ened": 4588,
      "stu": 4589,
      "stations": 4590,
      "roman": 4591,
      "urras": 4592,
      "rab": 4593,
      "seed": 4594,
      "owen": 4595,
      "agric": 4596,
      "hole": 4597,
      "parking": 4598,
      "poses": 4599,
      "childcare": 4600,
      "buyers": 4601,
      "legend": 4602,
      "walker": 4603,
      "freeway": 4604,
      "bunbury": 4605,
      "pilots": 4606,
      "bbc": 4607,
      "friends": 4608,
      "until": 4609,
      "retains": 4610,
      "afoot": 4611,
      "quarantine": 4612,
      "sustain": 4613,
      "gst": 4614,
      "ix": 4615,
      "tell": 4616,
      "ticket": 4617,
      "tassie": 4618,
      "yard": 4619,
      "zen": 4620,
      "insu": 4621,
      "influ": 4622,
      "itis": 4623,
      "icac": 4624,
      "rome": 4625,
      "aging": 4626,
      "poised": 4627,
      "like": 4628,
      "actu": 4629,
      "brig": 4630,
      "brace": 4631,
      "braces": 4632,
      "saw": 4633,
      "print": 4634,
      "speak": 4635,
      "valenc": 4636,
      "cope": 4637,
      "bounce": 4638,
      "appearance": 4639,
      "fergus": 4640,
      "qualifying": 4641,
      "exhibition": 4642,
      "accommodation": 4643,
      "bru": 4644,
      "hints": 4645,
      "nity": 4646,
      "sas": 4647,
      "tend": 4648,
      "wing": 4649,
      "inity": 4650,
      "infl": 4651,
      "ancy": 4652,
      "iser": 4653,
      "lewis": 4654,
      "loy": 4655,
      "shep": 4656,
      "ivory": 4657,
      "elled": 4658,
      "bry": 4659,
      "presses": 4660,
      "costa": 4661,
      "passenger": 4662,
      "eyre": 4663,
      "kook": 4664,
      "rescuers": 4665,
      "same": 4666,
      "administrator": 4667,
      "fake": 4668,
      "plead": 4669,
      "tie": 4670,
      "indem": 4671,
      "any": 4672,
      "toad": 4673,
      "atory": 4674,
      "never": 4675,
      "indy": 4676,
      "ember": 4677,
      "marty": 4678,
      "charles": 4679,
      "ellers": 4680,
      "fects": 4681,
      "cape": 4682,
      "investigators": 4683,
      "duck": 4684,
      "osen": 4685,
      "whaling": 4686,
      "swan": 4687,
      "solve": 4688,
      "passengers": 4689,
      "truce": 4690,
      "popular": 4691,
      "supplies": 4692,
      "thrash": 4693,
      "creditors": 4694,
      "village": 4695,
      "seized": 4696,
      "cameras": 4697,
      "alternative": 4698,
      "libya": 4699,
      "cocaine": 4700,
      "valencia": 4701,
      "indemnity": 4702,
      "bite": 4703,
      "cmc": 4704,
      "data": 4705,
      "mall": 4706,
      "nav": 4707,
      "stree": 4708,
      "igning": 4709,
      "illness": 4710,
      "manu": 4711,
      "umble": 4712,
      "tram": 4713,
      "banking": 4714,
      "mayors": 4715,
      "sched": 4716,
      "grady": 4717,
      "ifts": 4718,
      "denied": 4719,
      "dengue": 4720,
      "haiti": 4721,
      "payment": 4722,
      "returned": 4723,
      "lightning": 4724,
      "mayoral": 4725,
      "salinity": 4726,
      "explain": 4727,
      "limits": 4728,
      "halts": 4729,
      "rolls": 4730,
      "footy": 4731,
      "reduced": 4732,
      "nrma": 4733,
      "completes": 4734,
      "penalties": 4735,
      "recommends": 4736,
      "grove": 4737,
      "punish": 4738,
      "arthurs": 4739,
      "detect": 4740,
      "plastic": 4741,
      "hedland": 4742,
      "adjourned": 4743,
      "fronts": 4744,
      "ferguson": 4745,
      "cant": 4746,
      "ees": 4747,
      "gate": 4748,
      "kur": 4749,
      "sel": 4750,
      "tex": 4751,
      "orle": 4752,
      "reopens": 4753,
      "elli": 4754,
      "seas": 4755,
      "manent": 4756,
      "cracks": 4757,
      "risks": 4758,
      "permanent": 4759,
      "commits": 4760,
      "model": 4761,
      "safin": 4762,
      "welcomed": 4763,
      "rainfall": 4764,
      "appla": 4765,
      "businessman": 4766,
      "brothers": 4767,
      "fuels": 4768,
      "holding": 4769,
      "ernity": 4770,
      "standards": 4771,
      "targeted": 4772,
      "listing": 4773,
      "sadr": 4774,
      "division": 4775,
      "stabbed": 4776,
      "peninsu": 4777,
      "jordan": 4778,
      "bond": 4779,
      "false": 4780,
      "broadband": 4781,
      "malaysian": 4782,
      "livestock": 4783,
      "responsible": 4784,
      "pulp": 4785,
      "gambier": 4786,
      "kookab": 4787,
      "peninsula": 4788,
      "nick": 4789,
      "til": 4790,
      "tact": 4791,
      "zer": 4792,
      "analy": 4793,
      "envoy": 4794,
      "rex": 4795,
      "refin": 4796,
      "itation": 4797,
      "shops": 4798,
      "plun": 4799,
      "resist": 4800,
      "vehic": 4801,
      "exit": 4802,
      "exchange": 4803,
      "tele": 4804,
      "disgr": 4805,
      "doors": 4806,
      "commander": 4807,
      "appears": 4808,
      "bids": 4809,
      "partners": 4810,
      "trying": 4811,
      "treaty": 4812,
      "treated": 4813,
      "trees": 4814,
      "henry": 4815,
      "basra": 4816,
      "troubled": 4817,
      "reserves": 4818,
      "clinic": 4819,
      "gathering": 4820,
      "nigerian": 4821,
      "recruit": 4822,
      "settlement": 4823,
      "application": 4824,
      "equip": 4825,
      "contamination": 4826,
      "theatre": 4827,
      "kookaburras": 4828,
      "did": 4829,
      "done": 4830,
      "drun": 4831,
      "map": 4832,
      "vision": 4833,
      "incent": 4834,
      "alarm": 4835,
      "tobac": 4836,
      "oust": 4837,
      "iliation": 4838,
      "seals": 4839,
      "coup": 4840,
      "spend": 4841,
      "appr": 4842,
      "gests": 4843,
      "traged": 4844,
      "branch": 4845,
      "fundra": 4846,
      "healthy": 4847,
      "desert": 4848,
      "criticise": 4849,
      "englands": 4850,
      "railway": 4851,
      "presidential": 4852,
      "society": 4853,
      "snowy": 4854,
      "mounts": 4855,
      "stitute": 4856,
      "sprint": 4857,
      "irrigation": 4858,
      "retailers": 4859,
      "sailor": 4860,
      "hockeyroos": 4861,
      "kuwait": 4862,
      "suggests": 4863,
      "cotton": 4864,
      "restaurant": 4865,
      "orleans": 4866,
      "apprent": 4867,
      "awar": 4868,
      "gap": 4869,
      "gents": 4870,
      "hour": 4871,
      "kit": 4872,
      "lis": 4873,
      "sens": 4874,
      "represent": 4875,
      "atter": 4876,
      "entit": 4877,
      "opals": 4878,
      "ups": 4879,
      "abalone": 4880,
      "portug": 4881,
      "cleric": 4882,
      "avan": 4883,
      "graph": 4884,
      "intens": 4885,
      "ullrich": 4886,
      "sharap": 4887,
      "mcg": 4888,
      "tower": 4889,
      "gunns": 4890,
      "singh": 4891,
      "finding": 4892,
      "postpon": 4893,
      "blackout": 4894,
      "matthe": 4895,
      "maternity": 4896,
      "insurgents": 4897,
      "climbs": 4898,
      "lipped": 4899,
      "expecting": 4900,
      "hydro": 4901,
      "announcement": 4902,
      "revenge": 4903,
      "daugh": 4904,
      "sniffing": 4905,
      "assassination": 4906,
      "ceremony": 4907,
      "satellite": 4908,
      "rabbi": 4909,
      "tobacco": 4910,
      "iary": 4911,
      "mouth": 4912,
      "yards": 4913,
      "edy": 4914,
      "rot": 4915,
      "forests": 4916,
      "thought": 4917,
      "lam": 4918,
      "afford": 4919,
      "ota": 4920,
      "agent": 4921,
      "quate": 4922,
      "cooperation": 4923,
      "expo": 4924,
      "astron": 4925,
      "landholders": 4926,
      "redfern": 4927,
      "rivals": 4928,
      "roma": 4929,
      "gabe": 4930,
      "speaker": 4931,
      "dumped": 4932,
      "woodward": 4933,
      "nearly": 4934,
      "bosses": 4935,
      "magpies": 4936,
      "cliff": 4937,
      "kangaroo": 4938,
      "mugabe": 4939,
      "meatworks": 4940,
      "shuttle": 4941,
      "dental": 4942,
      "wedding": 4943,
      "mexico": 4944,
      "sponsor": 4945,
      "refinery": 4946,
      "daughter": 4947,
      "differ": 4948,
      "mut": 4949,
      "sis": 4950,
      "sco": 4951,
      "tag": 4952,
      "zard": 4953,
      "reaction": 4954,
      "isa": 4955,
      "chile": 4956,
      "devil": 4957,
      "aders": 4958,
      "adds": 4959,
      "parade": 4960,
      "caravan": 4961,
      "minor": 4962,
      "disab": 4963,
      "rivkin": 4964,
      "grave": 4965,
      "buck": 4966,
      "closures": 4967,
      "jails": 4968,
      "striking": 4969,
      "clude": 4970,
      "gunmen": 4971,
      "darling": 4972,
      "bennett": 4973,
      "nato": 4974,
      "staffing": 4975,
      "faith": 4976,
      "expand": 4977,
      "matches": 4978,
      "parliamentary": 4979,
      "prevention": 4980,
      "books": 4981,
      "haven": 4982,
      "negotiations": 4983,
      "involved": 4984,
      "chinas": 4985,
      "wreck": 4986,
      "cancelled": 4987,
      "tendul": 4988,
      "streets": 4989,
      "manufact": 4990,
      "sharapova": 4991,
      "cir": 4992,
      "ij": 4993,
      "rallies": 4994,
      "sle": 4995,
      "slide": 4996,
      "zuel": 4997,
      "stric": 4998,
      "rehab": 4999,
      "itch": 5000,
      "asse": 5001,
      "raib": 5002,
      "apart": 5003,
      "boats": 5004,
      "offender": 5005,
      "sured": 5006,
      "parts": 5007,
      "ghraib": 5008,
      "berg": 5009,
      "serial": 5010,
      "oster": 5011,
      "lywood": 5012,
      "science": 5013,
      "remanded": 5014,
      "bug": 5015,
      "coles": 5016,
      "sentences": 5017,
      "lett": 5018,
      "locals": 5019,
      "bowl": 5020,
      "extradition": 5021,
      "range": 5022,
      "mount": 5023,
      "rudd": 5024,
      "allows": 5025,
      "natural": 5026,
      "mosque": 5027,
      "criminal": 5028,
      "decline": 5029,
      "viduka": 5030,
      "opportun": 5031,
      "athletes": 5032,
      "california": 5033,
      "rabbito": 5034,
      "fts": 5035,
      "gong": 5036,
      "nov": 5037,
      "rsl": 5038,
      "uation": 5039,
      "rezoning": 5040,
      "itory": 5041,
      "rains": 5042,
      "unchanged": 5043,
      "seafo": 5044,
      "option": 5045,
      "spots": 5046,
      "email": 5047,
      "suu": 5048,
      "within": 5049,
      "maro": 5050,
      "redun": 5051,
      "asean": 5052,
      "commerc": 5053,
      "labels": 5054,
      "interstate": 5055,
      "territory": 5056,
      "whales": 5057,
      "spect": 5058,
      "bullying": 5059,
      "bills": 5060,
      "clarke": 5061,
      "detail": 5062,
      "reality": 5063,
      "matild": 5064,
      "explosives": 5065,
      "sunday": 5066,
      "sunshine": 5067,
      "bandit": 5068,
      "captured": 5069,
      "uncertainty": 5070,
      "advances": 5071,
      "surprised": 5072,
      "venezuel": 5073,
      "lucky": 5074,
      "conflict": 5075,
      "tragedy": 5076,
      "seafood": 5077,
      "aware": 5078,
      "jan": 5079,
      "kins": 5080,
      "lton": 5081,
      "lashes": 5082,
      "ox": 5083,
      "ole": 5084,
      "incl": 5085,
      "erial": 5086,
      "assets": 5087,
      "dement": 5088,
      "thief": 5089,
      "becomes": 5090,
      "resses": 5091,
      "plants": 5092,
      "cards": 5093,
      "carry": 5094,
      "display": 5095,
      "contribut": 5096,
      "pub": 5097,
      "restor": 5098,
      "captures": 5099,
      "hael": 5100,
      "murderer": 5101,
      "failing": 5102,
      "retires": 5103,
      "operator": 5104,
      "causing": 5105,
      "wildcats": 5106,
      "ancient": 5107,
      "motorists": 5108,
      "complex": 5109,
      "wilkinson": 5110,
      "boundary": 5111,
      "fleming": 5112,
      "lord": 5113,
      "revenue": 5114,
      "zarq": 5115,
      "chaos": 5116,
      "opportunities": 5117,
      "rabbitohs": 5118,
      "dir": 5119,
      "gom": 5120,
      "hq": 5121,
      "malle": 5122,
      "toy": 5123,
      "users": 5124,
      "ellow": 5125,
      "tery": 5126,
      "been": 5127,
      "upper": 5128,
      "kemp": 5129,
      "spo": 5130,
      "worst": 5131,
      "umper": 5132,
      "pson": 5133,
      "banana": 5134,
      "corpor": 5135,
      "tours": 5136,
      "deser": 5137,
      "putin": 5138,
      "decided": 5139,
      "gren": 5140,
      "breakers": 5141,
      "glen": 5142,
      "ponents": 5143,
      "suspends": 5144,
      "thanks": 5145,
      "born": 5146,
      "cruelty": 5147,
      "rebate": 5148,
      "lockyer": 5149,
      "civilians": 5150,
      "mosul": 5151,
      "vandalism": 5152,
      "brothel": 5153,
      "pentagon": 5154,
      "equipment": 5155,
      "portugal": 5156,
      "commercial": 5157,
      "dred": 5158,
      "foun": 5159,
      "foster": 5160,
      "jumps": 5161,
      "ni": 5162,
      "nic": 5163,
      "nth": 5164,
      "pension": 5165,
      "scar": 5166,
      "vig": 5167,
      "wounds": 5168,
      "adium": 5169,
      "shell": 5170,
      "istle": 5171,
      "heard": 5172,
      "wart": 5173,
      "offensive": 5174,
      "endum": 5175,
      "fireworks": 5176,
      "perform": 5177,
      "cano": 5178,
      "schu": 5179,
      "schol": 5180,
      "note": 5181,
      "maures": 5182,
      "concert": 5183,
      "servants": 5184,
      "terrorists": 5185,
      "grows": 5186,
      "prix": 5187,
      "elected": 5188,
      "houses": 5189,
      "animals": 5190,
      "mountain": 5191,
      "casual": 5192,
      "thomas": 5193,
      "microsoft": 5194,
      "citizen": 5195,
      "analyst": 5196,
      "tendulkar": 5197,
      "mallee": 5198,
      "mauresmo": 5199,
      "fan": 5200,
      "mand": 5201,
      "mick": 5202,
      "rd": 5203,
      "wler": 5204,
      "xstr": 5205,
      "onger": 5206,
      "orate": 5207,
      "repe": 5208,
      "acquit": 5209,
      "laden": 5210,
      "rio": 5211,
      "conced": 5212,
      "gears": 5213,
      "sham": 5214,
      "veget": 5215,
      "ieved": 5216,
      "warming": 5217,
      "libr": 5218,
      "carn": 5219,
      "discrimin": 5220,
      "avail": 5221,
      "idea": 5222,
      "typho": 5223,
      "identity": 5224,
      "restru": 5225,
      "presence": 5226,
      "interim": 5227,
      "auto": 5228,
      "investigations": 5229,
      "pedest": 5230,
      "opera": 5231,
      "policies": 5232,
      "visitors": 5233,
      "youths": 5234,
      "robinson": 5235,
      "ledge": 5236,
      "governments": 5237,
      "advance": 5238,
      "motorcycle": 5239,
      "flows": 5240,
      "photos": 5241,
      "silent": 5242,
      "broadcast": 5243,
      "finishes": 5244,
      "examines": 5245,
      "ferrero": 5246,
      "nominations": 5247,
      "machine": 5248,
      "optimistic": 5249,
      "martyn": 5250,
      "redundan": 5251,
      "bit": 5252,
      "ciliation": 5253,
      "nelson": 5254,
      "saves": 5255,
      "samo": 5256,
      "tid": 5257,
      "wto": 5258,
      "wages": 5259,
      "ini": 5260,
      "onto": 5261,
      "rein": 5262,
      "redevelopment": 5263,
      "rau": 5264,
      "unite": 5265,
      "unknown": 5266,
      "oma": 5267,
      "conciliation": 5268,
      "prosp": 5269,
      "beij": 5270,
      "shad": 5271,
      "poli": 5272,
      "cock": 5273,
      "lips": 5274,
      "cloud": 5275,
      "berth": 5276,
      "murders": 5277,
      "closing": 5278,
      "vert": 5279,
      "investigated": 5280,
      "critics": 5281,
      "speech": 5282,
      "babys": 5283,
      "patel": 5284,
      "donation": 5285,
      "shortfall": 5286,
      "hih": 5287,
      "springboks": 5288,
      "pitch": 5289,
      "freedom": 5290,
      "hampers": 5291,
      "responsibility": 5292,
      "destroyed": 5293,
      "reflects": 5294,
      "replacement": 5295,
      "maroons": 5296,
      "zarqawi": 5297,
      "gps": 5298,
      "goul": 5299,
      "hims": 5300,
      "pine": 5301,
      "rit": 5302,
      "twins": 5303,
      "innings": 5304,
      "stick": 5305,
      "style": 5306,
      "republic": 5307,
      "ati": 5308,
      "aced": 5309,
      "ione": 5310,
      "leton": 5311,
      "lakes": 5312,
      "agforce": 5313,
      "aborig": 5314,
      "vement": 5315,
      "iant": 5316,
      "counts": 5317,
      "athers": 5318,
      "parmal": 5319,
      "trains": 5320,
      "moya": 5321,
      "channel": 5322,
      "waterfall": 5323,
      "bushs": 5324,
      "pharm": 5325,
      "august": 5326,
      "princ": 5327,
      "shoal": 5328,
      "size": 5329,
      "whistle": 5330,
      "racist": 5331,
      "large": 5332,
      "tasmanians": 5333,
      "michael": 5334,
      "fisheries": 5335,
      "solomon": 5336,
      "ownership": 5337,
      "rumours": 5338,
      "volunteer": 5339,
      "pirates": 5340,
      "guidelines": 5341,
      "wwii": 5342,
      "stroke": 5343,
      "inflation": 5344,
      "awareness": 5345,
      "sleep": 5346,
      "himself": 5347,
      "beds": 5348,
      "fro": 5349,
      "iri": 5350,
      "mush": 5351,
      "tenders": 5352,
      "onia": 5353,
      "sth": 5354,
      "stake": 5355,
      "rook": 5356,
      "ambush": 5357,
      "lod": 5358,
      "terms": 5359,
      "betes": 5360,
      "shrug": 5361,
      "agu": 5362,
      "cod": 5363,
      "counting": 5364,
      "trav": 5365,
      "ishes": 5366,
      "marina": 5367,
      "webb": 5368,
      "score": 5369,
      "ombuds": 5370,
      "flies": 5371,
      "flash": 5372,
      "anglers": 5373,
      "grass": 5374,
      "balance": 5375,
      "marketing": 5376,
      "dark": 5377,
      "teenagers": 5378,
      "bravery": 5379,
      "liberian": 5380,
      "experience": 5381,
      "moroc": 5382,
      "magic": 5383,
      "islanders": 5384,
      "successful": 5385,
      "lifted": 5386,
      "cricketers": 5387,
      "princes": 5388,
      "joyce": 5389,
      "husband": 5390,
      "devast": 5391,
      "kiwi": 5392,
      "quizzed": 5393,
      "hookes": 5394,
      "diabetes": 5395,
      "wheel": 5396,
      "pittman": 5397,
      "vigil": 5398,
      "xstrata": 5399,
      "typhoon": 5400,
      "beijing": 5401,
      "aborigines": 5402,
      "parmalat": 5403,
      "dine": 5404,
      "lus": 5405,
      "ranger": 5406,
      "tan": 5407,
      "wy": 5408,
      "ara": 5409,
      "ares": 5410,
      "almost": 5411,
      "rets": 5412,
      "repri": 5413,
      "fores": 5414,
      "lees": 5415,
      "raaf": 5416,
      "sewage": 5417,
      "aman": 5418,
      "adf": 5419,
      "lodge": 5420,
      "offenders": 5421,
      "subur": 5422,
      "iple": 5423,
      "orses": 5424,
      "command": 5425,
      "breed": 5426,
      "burke": 5427,
      "fame": 5428,
      "reviews": 5429,
      "abbas": 5430,
      "senators": 5431,
      "slash": 5432,
      "popes": 5433,
      "praised": 5434,
      "committed": 5435,
      "improved": 5436,
      "rapist": 5437,
      "motorcyclist": 5438,
      "aiming": 5439,
      "prosecution": 5440,
      "screening": 5441,
      "montgom": 5442,
      "jaze": 5443,
      "source": 5444,
      "judiciary": 5445,
      "postponed": 5446,
      "disabled": 5447,
      "goulburn": 5448,
      "bic": 5449,
      "bble": 5450,
      "easy": 5451,
      "obes": 5452,
      "pile": 5453,
      "phelps": 5454,
      "ule": 5455,
      "you": 5456,
      "include": 5457,
      "ala": 5458,
      "stadium": 5459,
      "reconciliation": 5460,
      "icip": 5461,
      "chick": 5462,
      "lah": 5463,
      "lax": 5464,
      "rift": 5465,
      "bega": 5466,
      "shakes": 5467,
      "plin": 5468,
      "spi": 5469,
      "vet": 5470,
      "tail": 5471,
      "uters": 5472,
      "words": 5473,
      "express": 5474,
      "emot": 5475,
      "disci": 5476,
      "doing": 5477,
      "meth": 5478,
      "getting": 5479,
      "blazes": 5480,
      "medi": 5481,
      "duo": 5482,
      "seeker": 5483,
      "ratepayers": 5484,
      "saleyards": 5485,
      "curb": 5486,
      "rankings": 5487,
      "were": 5488,
      "encies": 5489,
      "juven": 5490,
      "kidnap": 5491,
      "dope": 5492,
      "pursuit": 5493,
      "drowning": 5494,
      "wenger": 5495,
      "egyptian": 5496,
      "executive": 5497,
      "triggers": 5498,
      "preferences": 5499,
      "traditional": 5500,
      "elliott": 5501,
      "founder": 5502,
      "jazeera": 5503,
      "bows": 5504,
      "culture": 5505,
      "ired": 5506,
      "kne": 5507,
      "nba": 5508,
      "vs": 5509,
      "vital": 5510,
      "went": 5511,
      "ordeal": 5512,
      "arian": 5513,
      "enjoy": 5514,
      "roo": 5515,
      "roof": 5516,
      "aside": 5517,
      "unsure": 5518,
      "riati": 5519,
      "neigh": 5520,
      "spree": 5521,
      "cted": 5522,
      "embar": 5523,
      "minim": 5524,
      "commem": 5525,
      "defam": 5526,
      "capriati": 5527,
      "phill": 5528,
      "movie": 5529,
      "harry": 5530,
      "kenned": 5531,
      "kenya": 5532,
      "caution": 5533,
      "builders": 5534,
      "value": 5535,
      "sporting": 5536,
      "mountains": 5537,
      "complaint": 5538,
      "sorry": 5539,
      "havoc": 5540,
      "controversy": 5541,
      "narrow": 5542,
      "throws": 5543,
      "unveiled": 5544,
      "weighs": 5545,
      "counselling": 5546,
      "peacekeepers": 5547,
      "entitle": 5548,
      "obesity": 5549,
      "neighbour": 5550,
      "bott": 5551,
      "dive": 5552,
      "gor": 5553,
      "kak": 5554,
      "preg": 5555,
      "skilled": 5556,
      "smel": 5557,
      "slight": 5558,
      "tent": 5559,
      "wic": 5560,
      "toge": 5561,
      "admit": 5562,
      "shu": 5563,
      "shore": 5564,
      "coor": 5565,
      "cooper": 5566,
      "cook": 5567,
      "crus": 5568,
      "cler": 5569,
      "bright": 5570,
      "finally": 5571,
      "mothers": 5572,
      "hollywood": 5573,
      "hammer": 5574,
      "straight": 5575,
      "preparations": 5576,
      "steel": 5577,
      "fazed": 5578,
      "folk": 5579,
      "tune": 5580,
      "potter": 5581,
      "richmond": 5582,
      "trafficking": 5583,
      "remembers": 5584,
      "promote": 5585,
      "tempor": 5586,
      "patrols": 5587,
      "documents": 5588,
      "ronaldo": 5589,
      "continued": 5590,
      "schedule": 5591,
      "tactics": 5592,
      "montgomery": 5593,
      "pregn": 5594,
      "smelter": 5595,
      "together": 5596,
      "cing": 5597,
      "dino": 5598,
      "him": 5599,
      "stress": 5600,
      "chasing": 5601,
      "that": 5602,
      "convention": 5603,
      "idale": 5604,
      "plat": 5605,
      "upsets": 5606,
      "boating": 5607,
      "iem": 5608,
      "countries": 5609,
      "parent": 5610,
      "assa": 5611,
      "mini": 5612,
      "contact": 5613,
      "armidale": 5614,
      "peru": 5615,
      "canc": 5616,
      "intoff": 5617,
      "flintoff": 5618,
      "effect": 5619,
      "burg": 5620,
      "burst": 5621,
      "stronger": 5622,
      "gene": 5623,
      "hurting": 5624,
      "hijack": 5625,
      "borough": 5626,
      "coaching": 5627,
      "cruises": 5628,
      "morning": 5629,
      "qualifi": 5630,
      "locked": 5631,
      "classic": 5632,
      "renewed": 5633,
      "grip": 5634,
      "brazilian": 5635,
      "specialist": 5636,
      "satis": 5637,
      "removed": 5638,
      "seizes": 5639,
      "washington": 5640,
      "advantage": 5641,
      "referendum": 5642,
      "prosecutors": 5643,
      "initiative": 5644,
      "vehicle": 5645,
      "library": 5646,
      "knee": 5647,
      "gon": 5648,
      "ius": 5649,
      "kos": 5650,
      "mud": 5651,
      "pill": 5652,
      "itors": 5653,
      "isol": 5654,
      "rav": 5655,
      "elong": 5656,
      "loe": 5657,
      "manly": 5658,
      "aga": 5659,
      "abs": 5660,
      "bosn": 5661,
      "winem": 5662,
      "ished": 5663,
      "mineral": 5664,
      "identified": 5665,
      "maid": 5666,
      "breath": 5667,
      "butler": 5668,
      "eastern": 5669,
      "atherine": 5670,
      "bah": 5671,
      "drill": 5672,
      "visitor": 5673,
      "programs": 5674,
      "upgrades": 5675,
      "leagues": 5676,
      "kyi": 5677,
      "amidst": 5678,
      "avoids": 5679,
      "activist": 5680,
      "collaps": 5681,
      "promotion": 5682,
      "scottish": 5683,
      "arabia": 5684,
      "ologist": 5685,
      "georg": 5686,
      "separate": 5687,
      "abandoned": 5688,
      "priority": 5689,
      "available": 5690,
      "defamation": 5691,
      "dance": 5692,
      "fault": 5693,
      "gum": 5694,
      "ipoli": 5695,
      "kas": 5696,
      "lang": 5697,
      "migration": 5698,
      "albury": 5699,
      "them": 5700,
      "ades": 5701,
      "overnight": 5702,
      "bears": 5703,
      "shown": 5704,
      "reshu": 5705,
      "hecs": 5706,
      "mean": 5707,
      "finance": 5708,
      "courts": 5709,
      "rivers": 5710,
      "canola": 5711,
      "supreme": 5712,
      "waterfront": 5713,
      "pressures": 5714,
      "angle": 5715,
      "trophy": 5716,
      "inade": 5717,
      "phones": 5718,
      "complet": 5719,
      "archbishop": 5720,
      "licens": 5721,
      "explosions": 5722,
      "blows": 5723,
      "massac": 5724,
      "mourn": 5725,
      "santos": 5726,
      "henman": 5727,
      "wolves": 5728,
      "gallipoli": 5729,
      "survivor": 5730,
      "psychi": 5731,
      "determin": 5732,
      "revealed": 5733,
      "bacon": 5734,
      "nigeria": 5735,
      "diplomat": 5736,
      "shiite": 5737,
      "swedish": 5738,
      "grenade": 5739,
      "pedestrian": 5740,
      "ombudsman": 5741,
      "juvenile": 5742,
      "kennedy": 5743,
      "kakad": 5744,
      "psychiat": 5745,
      "ea": 5746,
      "ially": 5747,
      "jim": 5748,
      "rw": 5749,
      "rating": 5750,
      "sister": 5751,
      "vice": 5752,
      "raz": 5753,
      "igious": 5754,
      "heats": 5755,
      "ements": 5756,
      "lier": 5757,
      "rounds": 5758,
      "paral": 5759,
      "serb": 5760,
      "lyn": 5761,
      "farming": 5762,
      "calder": 5763,
      "ballot": 5764,
      "monds": 5765,
      "stosur": 5766,
      "mcdon": 5767,
      "freeze": 5768,
      "liberia": 5769,
      "handover": 5770,
      "racism": 5771,
      "wildlife": 5772,
      "lifeline": 5773,
      "lobbies": 5774,
      "roadside": 5775,
      "farina": 5776,
      "oulder": 5777,
      "escapee": 5778,
      "much": 5779,
      "everton": 5780,
      "adopts": 5781,
      "screen": 5782,
      "hangs": 5783,
      "multiple": 5784,
      "knowledge": 5785,
      "subsidy": 5786,
      "derailment": 5787,
      "paul": 5788,
      "nadal": 5789,
      "matildas": 5790,
      "whistleblow": 5791,
      "assaults": 5792,
      "cancels": 5793,
      "kakadu": 5794,
      "dish": 5795,
      "iks": 5796,
      "katherine": 5797,
      "mulls": 5798,
      "ose": 5799,
      "tum": 5800,
      "tens": 5801,
      "esper": 5802,
      "enix": 5803,
      "chell": 5804,
      "advert": 5805,
      "geelong": 5806,
      "beer": 5807,
      "apec": 5808,
      "ulate": 5809,
      "they": 5810,
      "byron": 5811,
      "missiles": 5812,
      "mpie": 5813,
      "corre": 5814,
      "surve": 5815,
      "surges": 5816,
      "scul": 5817,
      "intervention": 5818,
      "burnt": 5819,
      "crocod": 5820,
      "shoo": 5821,
      "gympie": 5822,
      "render": 5823,
      "developers": 5824,
      "strait": 5825,
      "fitz": 5826,
      "harvey": 5827,
      "japans": 5828,
      "related": 5829,
      "brave": 5830,
      "statement": 5831,
      "chechen": 5832,
      "tender": 5833,
      "files": 5834,
      "explodes": 5835,
      "advent": 5836,
      "extrad": 5837,
      "philippine": 5838,
      "mourners": 5839,
      "basin": 5840,
      "wheatbelt": 5841,
      "recognise": 5842,
      "monitoring": 5843,
      "paint": 5844,
      "mistake": 5845,
      "favourites": 5846,
      "frustrated": 5847,
      "colombian": 5848,
      "sworn": 5849,
      "dinosa": 5850,
      "iemma": 5851,
      "inadequate": 5852,
      "aide": 5853,
      "cze": 5854,
      "damp": 5855,
      "fic": 5856,
      "fosters": 5857,
      "gles": 5858,
      "kat": 5859,
      "pione": 5860,
      "twin": 5861,
      "uary": 5862,
      "wick": 5863,
      "inho": 5864,
      "alger": 5865,
      "alloc": 5866,
      "depress": 5867,
      "thum": 5868,
      "este": 5869,
      "converge": 5870,
      "loan": 5871,
      "bear": 5872,
      "plate": 5873,
      "ceed": 5874,
      "agencies": 5875,
      "abil": 5876,
      "cart": 5877,
      "active": 5878,
      "trawler": 5879,
      "bery": 5880,
      "serve": 5881,
      "coria": 5882,
      "syn": 5883,
      "max": 5884,
      "headed": 5885,
      "ferdin": 5886,
      "regain": 5887,
      "milestone": 5888,
      "mergers": 5889,
      "stoush": 5890,
      "bags": 5891,
      "nuke": 5892,
      "politician": 5893,
      "firefighting": 5894,
      "figure": 5895,
      "views": 5896,
      "liter": 5897,
      "horror": 5898,
      "phoenix": 5899,
      "bronze": 5900,
      "princess": 5901,
      "interviews": 5902,
      "conservationists": 5903,
      "temper": 5904,
      "swimmers": 5905,
      "involvement": 5906,
      "september": 5907,
      "backpacker": 5908,
      "sheppar": 5909,
      "carnival": 5910,
      "discrimination": 5911,
      "prospects": 5912,
      "princip": 5913,
      "shrugs": 5914,
      "massacre": 5915,
      "esperance": 5916,
      "czech": 5917,
      "ae": 5918,
      "fence": 5919,
      "kic": 5920,
      "mclar": 5921,
      "text": 5922,
      "wich": 5923,
      "zones": 5924,
      "eries": 5925,
      "aro": 5926,
      "aris": 5927,
      "aria": 5928,
      "rebuild": 5929,
      "urban": 5930,
      "uncover": 5931,
      "laby": 5932,
      "sewer": 5933,
      "opponents": 5934,
      "image": 5935,
      "shr": 5936,
      "respite": 5937,
      "liability": 5938,
      "hod": 5939,
      "actions": 5940,
      "cker": 5941,
      "surrender": 5942,
      "moon": 5943,
      "grounds": 5944,
      "southcorp": 5945,
      "events": 5946,
      "taxes": 5947,
      "harris": 5948,
      "hostel": 5949,
      "relation": 5950,
      "researcher": 5951,
      "longreach": 5952,
      "blocks": 5953,
      "refuse": 5954,
      "sixth": 5955,
      "tenance": 5956,
      "garrett": 5957,
      "filip": 5958,
      "turnout": 5959,
      "factor": 5960,
      "lined": 5961,
      "bartlett": 5962,
      "maintenance": 5963,
      "snowtown": 5964,
      "macgill": 5965,
      "selling": 5966,
      "tickets": 5967,
      "civic": 5968,
      "psych": 5969,
      "adopt": 5970,
      "devon": 5971,
      "drowns": 5972,
      "diplomats": 5973,
      "multi": 5974,
      "tanker": 5975,
      "surprises": 5976,
      "regulations": 5977,
      "document": 5978,
      "competit": 5979,
      "cambodian": 5980,
      "kyoto": 5981,
      "guarantee": 5982,
      "delegation": 5983,
      "matthews": 5984,
      "restored": 5985,
      "concedes": 5986,
      "gib": 5987,
      "ioc": 5988,
      "ject": 5989,
      "lims": 5990,
      "mul": 5991,
      "pour": 5992,
      "sque": 5993,
      "vals": 5994,
      "wes": 5995,
      "alds": 5996,
      "alight": 5997,
      "stunt": 5998,
      "ilton": 5999,
      "rober": 6000,
      "chest": 6001,
      "deliber": 6002,
      "thinks": 6003,
      "rie": 6004,
      "proof": 6005,
      "apy": 6006,
      "compromise": 6007,
      "bog": 6008,
      "poach": 6009,
      "fifa": 6010,
      "earn": 6011,
      "attention": 6012,
      "uded": 6013,
      "hoax": 6014,
      "thefts": 6015,
      "rubb": 6016,
      "aircraft": 6017,
      "oneill": 6018,
      "posed": 6019,
      "tested": 6020,
      "boosted": 6021,
      "restore": 6022,
      "artist": 6023,
      "desper": 6024,
      "drain": 6025,
      "wallaby": 6026,
      "kenyan": 6027,
      "approvals": 6028,
      "shipment": 6029,
      "fluorid": 6030,
      "increasing": 6031,
      "mitchell": 6032,
      "pengu": 6033,
      "dismissed": 6034,
      "privat": 6035,
      "provides": 6036,
      "silence": 6037,
      "saved": 6038,
      "captaincy": 6039,
      "choice": 6040,
      "consumers": 6041,
      "george": 6042,
      "fergie": 6043,
      "reminder": 6044,
      "smuggler": 6045,
      "dolphin": 6046,
      "recommendations": 6047,
      "nickel": 6048,
      "incentives": 6049,
      "apprentices": 6050,
      "intensifies": 6051,
      "maiden": 6052,
      "cies": 6053,
      "dal": 6054,
      "dip": 6055,
      "gage": 6056,
      "ration": 6057,
      "song": 6058,
      "swee": 6059,
      "income": 6060,
      "institute": 6061,
      "ensure": 6062,
      "stut": 6063,
      "stev": 6064,
      "isions": 6065,
      "lect": 6066,
      "unfazed": 6067,
      "ella": 6068,
      "congress": 6069,
      "istics": 6070,
      "vets": 6071,
      "cole": 6072,
      "hood": 6073,
      "landmark": 6074,
      "killings": 6075,
      "airports": 6076,
      "downplays": 6077,
      "bson": 6078,
      "desal": 6079,
      "drives": 6080,
      "diesel": 6081,
      "shots": 6082,
      "harness": 6083,
      "batting": 6084,
      "approve": 6085,
      "hearts": 6086,
      "camel": 6087,
      "muslims": 6088,
      "truckies": 6089,
      "employees": 6090,
      "griffit": 6091,
      "jets": 6092,
      "farewells": 6093,
      "giro": 6094,
      "breaches": 6095,
      "tributes": 6096,
      "shocked": 6097,
      "inspectors": 6098,
      "assessment": 6099,
      "oyster": 6100,
      "disrupt": 6101,
      "fingleton": 6102,
      "department": 6103,
      "liquor": 6104,
      "liquid": 6105,
      "shadow": 6106,
      "shoalhaven": 6107,
      "ferdinand": 6108,
      "aerial": 6109,
      "bou": 6110,
      "dfat": 6111,
      "diff": 6112,
      "mod": 6113,
      "pact": 6114,
      "sacks": 6115,
      "slips": 6116,
      "ula": 6117,
      "anes": 6118,
      "stir": 6119,
      "robe": 6120,
      "dee": 6121,
      "deals": 6122,
      "unclear": 6123,
      "estim": 6124,
      "spam": 6125,
      "ago": 6126,
      "aba": 6127,
      "boot": 6128,
      "ieve": 6129,
      "cry": 6130,
      "carlton": 6131,
      "mosc": 6132,
      "scop": 6133,
      "remove": 6134,
      "presidents": 6135,
      "preselection": 6136,
      "regulation": 6137,
      "pratt": 6138,
      "grey": 6139,
      "shocks": 6140,
      "barcel": 6141,
      "monitors": 6142,
      "solid": 6143,
      "militia": 6144,
      "coverage": 6145,
      "approved": 6146,
      "lathams": 6147,
      "standing": 6148,
      "caused": 6149,
      "policing": 6150,
      "signals": 6151,
      "divided": 6152,
      "improving": 6153,
      "survival": 6154,
      "democracy": 6155,
      "tackles": 6156,
      "recovering": 6157,
      "tightens": 6158,
      "basket": 6159,
      "sweet": 6160,
      "kidnapping": 6161,
      "hume": 6162,
      "sweden": 6163,
      "introduces": 6164,
      "graziers": 6165,
      "applauds": 6166,
      "scots": 6167,
      "vegetation": 6168,
      "crusaders": 6169,
      "shepparton": 6170,
      "fbi": 6171,
      "male": 6172,
      "rans": 6173,
      "sar": 6174,
      "swo": 6175,
      "onen": 6176,
      "story": 6177,
      "strain": 6178,
      "stable": 6179,
      "chain": 6180,
      "thrown": 6181,
      "unbeaten": 6182,
      "estab": 6183,
      "keys": 6184,
      "outra": 6185,
      "pois": 6186,
      "fied": 6187,
      "param": 6188,
      "misconduct": 6189,
      "winners": 6190,
      "oldest": 6191,
      "controll": 6192,
      "dod": 6193,
      "symonds": 6194,
      "graffit": 6195,
      "timet": 6196,
      "burnett": 6197,
      "returning": 6198,
      "gae": 6199,
      "tariff": 6200,
      "storage": 6201,
      "freeman": 6202,
      "teenage": 6203,
      "shortages": 6204,
      "greenhouse": 6205,
      "slug": 6206,
      "partner": 6207,
      "added": 6208,
      "mix": 6209,
      "reached": 6210,
      "landslide": 6211,
      "ralf": 6212,
      "rocky": 6213,
      "slows": 6214,
      "exporters": 6215,
      "bonus": 6216,
      "urugu": 6217,
      "fastest": 6218,
      "feedback": 6219,
      "shield": 6220,
      "ignoring": 6221,
      "adviser": 6222,
      "learn": 6223,
      "finger": 6224,
      "demolition": 6225,
      "appleby": 6226,
      "bottom": 6227,
      "recruitment": 6228,
      "manufacturing": 6229,
      "scholar": 6230,
      "restructure": 6231,
      "emotional": 6232,
      "entitlements": 6233,
      "determined": 6234,
      "mclaren": 6235,
      "sewerage": 6236,
      "devonport": 6237,
      "desalination": 6238,
      "moscow": 6239,
      "establish": 6240,
      "graffiti": 6241,
      "bil": 6242,
      "fet": 6243,
      "lure": 6244,
      "mys": 6245,
      "nie": 6246,
      "oor": 6247,
      "ogrady": 6248,
      "rba": 6249,
      "som": 6250,
      "tons": 6251,
      "vac": 6252,
      "vill": 6253,
      "eriks": 6254,
      "reas": 6255,
      "reporter": 6256,
      "icult": 6257,
      "chy": 6258,
      "entry": 6259,
      "idency": 6260,
      "opt": 6261,
      "shear": 6262,
      "above": 6263,
      "bok": 6264,
      "emen": 6265,
      "fij": 6266,
      "clues": 6267,
      "bly": 6268,
      "percent": 6269,
      "moore": 6270,
      "nobel": 6271,
      "scene": 6272,
      "labelling": 6273,
      "fles": 6274,
      "ryan": 6275,
      "fallen": 6276,
      "monty": 6277,
      "walks": 6278,
      "affair": 6279,
      "greenpeace": 6280,
      "motion": 6281,
      "hikes": 6282,
      "atorium": 6283,
      "sixers": 6284,
      "heatwave": 6285,
      "morris": 6286,
      "resolved": 6287,
      "affecting": 6288,
      "giants": 6289,
      "allowed": 6290,
      "collection": 6291,
      "surgeon": 6292,
      "obst": 6293,
      "technical": 6294,
      "surfers": 6295,
      "adoption": 6296,
      "feeling": 6297,
      "inspires": 6298,
      "residential": 6299,
      "texas": 6300,
      "dredging": 6301,
      "samoa": 6302,
      "difficult": 6303,
      "barcelona": 6304,
      "uruguay": 6305,
      "cc": 6306,
      "juni": 6307,
      "lion": 6308,
      "lars": 6309,
      "mons": 6310,
      "pum": 6311,
      "scan": 6312,
      "samp": 6313,
      "wear": 6314,
      "wrap": 6315,
      "xi": 6316,
      "zam": 6317,
      "err": 6318,
      "ater": 6319,
      "ily": 6320,
      "urance": 6321,
      "uncovers": 6322,
      "kem": 6323,
      "keelty": 6324,
      "many": 6325,
      "ressing": 6326,
      "worse": 6327,
      "exempt": 6328,
      "poison": 6329,
      "parole": 6330,
      "carers": 6331,
      "waves": 6332,
      "aviation": 6333,
      "noise": 6334,
      "invited": 6335,
      "setback": 6336,
      "revol": 6337,
      "foss": 6338,
      "roadworks": 6339,
      "studies": 6340,
      "burgl": 6341,
      "buried": 6342,
      "drama": 6343,
      "decider": 6344,
      "shoots": 6345,
      "skin": 6346,
      "stealing": 6347,
      "salt": 6348,
      "clarifies": 6349,
      "experi": 6350,
      "dumping": 6351,
      "eurobod": 6352,
      "diver": 6353,
      "rupt": 6354,
      "rejected": 6355,
      "karza": 6356,
      "struggles": 6357,
      "hickss": 6358,
      "sudanese": 6359,
      "hadows": 6360,
      "gilles": 6361,
      "favourite": 6362,
      "encourage": 6363,
      "mundine": 6364,
      "salvos": 6365,
      "repairs": 6366,
      "inmate": 6367,
      "lismore": 6368,
      "dirty": 6369,
      "mcdonalds": 6370,
      "griffith": 6371,
      "basketball": 6372,
      "eurobodalla": 6373,
      "cities": 6374,
      "cwealth": 6375,
      "flet": 6376,
      "jers": 6377,
      "mull": 6378,
      "poul": 6379,
      "session": 6380,
      "tap": 6381,
      "vatic": 6382,
      "wif": 6383,
      "wraps": 6384,
      "yon": 6385,
      "yellow": 6386,
      "algae": 6387,
      "stret": 6388,
      "icate": 6389,
      "acle": 6390,
      "dela": 6391,
      "undecided": 6392,
      "riots": 6393,
      "kept": 6394,
      "keane": 6395,
      "managers": 6396,
      "abuses": 6397,
      "dson": 6398,
      "cooma": 6399,
      "endangered": 6400,
      "brand": 6401,
      "brush": 6402,
      "fewer": 6403,
      "feature": 6404,
      "turtle": 6405,
      "tournam": 6406,
      "pressured": 6407,
      "foil": 6408,
      "barnett": 6409,
      "swifts": 6410,
      "ponder": 6411,
      "brad": 6412,
      "blackouts": 6413,
      "fax": 6414,
      "kosc": 6415,
      "david": 6416,
      "climb": 6417,
      "fixing": 6418,
      "civilian": 6419,
      "statistics": 6420,
      "maryborough": 6421,
      "langu": 6422,
      "personal": 6423,
      "lebanese": 6424,
      "suggest": 6425,
      "twenty": 6426,
      "advocates": 6427,
      "acquitted": 6428,
      "reprieve": 6429,
      "temporary": 6430,
      "georgia": 6431,
      "crocodile": 6432,
      "desperate": 6433,
      "bone": 6434,
      "fc": 6435,
      "fum": 6436,
      "hens": 6437,
      "pel": 6438,
      "tuc": 6439,
      "zing": 6440,
      "inated": 6441,
      "anth": 6442,
      "leaving": 6443,
      "usual": 6444,
      "unis": 6445,
      "coni": 6446,
      "indias": 6447,
      "peak": 6448,
      "cruc": 6449,
      "empts": 6450,
      "asth": 6451,
      "hook": 6452,
      "clint": 6453,
      "misleading": 6454,
      "doch": 6455,
      "workshop": 6456,
      "gerr": 6457,
      "turned": 6458,
      "truss": 6459,
      "puzz": 6460,
      "symp": 6461,
      "scal": 6462,
      "grab": 6463,
      "revers": 6464,
      "artists": 6465,
      "normal": 6466,
      "pork": 6467,
      "dubai": 6468,
      "demon": 6469,
      "trained": 6470,
      "sharing": 6471,
      "broke": 6472,
      "howards": 6473,
      "titles": 6474,
      "religious": 6475,
      "elective": 6476,
      "valu": 6477,
      "hotline": 6478,
      "tooth": 6479,
      "frees": 6480,
      "struck": 6481,
      "soar": 6482,
      "dismissal": 6483,
      "customers": 6484,
      "threatening": 6485,
      "write": 6486,
      "contractors": 6487,
      "jihad": 6488,
      "boliv": 6489,
      "mourinho": 6490,
      "recognises": 6491,
      "catchment": 6492,
      "pursue": 6493,
      "boxing": 6494,
      "argentine": 6495,
      "settles": 6496,
      "recruits": 6497,
      "ologists": 6498,
      "remembered": 6499,
      "ignored": 6500,
      "thompson": 6501,
      "flatley": 6502,
      "severe": 6503,
      "inmates": 6504,
      "rookie": 6505,
      "qualifier": 6506,
      "thumbs": 6507,
      "scope": 6508,
      "kembla": 6509,
      "gillespie": 6510,
      "vatican": 6511,
      "tournament": 6512,
      "koscius": 6513,
      "bars": 6514,
      "bats": 6515,
      "cens": 6516,
      "dil": 6517,
      "dale": 6518,
      "gic": 6519,
      "jol": 6520,
      "mate": 6521,
      "nol": 6522,
      "nut": 6523,
      "picket": 6524,
      "purch": 6525,
      "sac": 6526,
      "zko": 6527,
      "ere": 6528,
      "replaces": 6529,
      "ching": 6530,
      "chosen": 6531,
      "thunder": 6532,
      "oval": 6533,
      "amro": 6534,
      "ada": 6535,
      "rip": 6536,
      "athlet": 6537,
      "udes": 6538,
      "backlash": 6539,
      "berlus": 6540,
      "rowing": 6541,
      "avers": 6542,
      "surrounds": 6543,
      "canal": 6544,
      "cleans": 6545,
      "undergoes": 6546,
      "notice": 6547,
      "defiant": 6548,
      "lawsuit": 6549,
      "farms": 6550,
      "feral": 6551,
      "eleph": 6552,
      "fighters": 6553,
      "what": 6554,
      "whit": 6555,
      "babies": 6556,
      "genet": 6557,
      "cuba": 6558,
      "mera": 6559,
      "palace": 6560,
      "billit": 6561,
      "prime": 6562,
      "danish": 6563,
      "battling": 6564,
      "bias": 6565,
      "slides": 6566,
      "cheap": 6567,
      "plantation": 6568,
      "woodchip": 6569,
      "committal": 6570,
      "listed": 6571,
      "upgraded": 6572,
      "improves": 6573,
      "truckie": 6574,
      "matic": 6575,
      "sheedy": 6576,
      "boaties": 6577,
      "profess": 6578,
      "profile": 6579,
      "stitut": 6580,
      "distribut": 6581,
      "independence": 6582,
      "discovered": 6583,
      "stuns": 6584,
      "wimmera": 6585,
      "tugun": 6586,
      "separat": 6587,
      "compete": 6588,
      "cooke": 6589,
      "average": 6590,
      "requests": 6591,
      "citizenship": 6592,
      "musharra": 6593,
      "travellers": 6594,
      "phillip": 6595,
      "shuts": 6596,
      "paralymp": 6597,
      "katr": 6598,
      "squee": 6599,
      "fluoridation": 6600,
      "sweeps": 6601,
      "poisoning": 6602,
      "eriksson": 6603,
      "cig": 6604,
      "file": 6605,
      "katic": 6606,
      "mom": 6607,
      "pier": 6608,
      "rings": 6609,
      "rfs": 6610,
      "sab": 6611,
      "signing": 6612,
      "uz": 6613,
      "won": 6614,
      "wils": 6615,
      "error": 6616,
      "ongoing": 6617,
      "ora": 6618,
      "ores": 6619,
      "arroy": 6620,
      "reign": 6621,
      "raik": 6622,
      "amc": 6623,
      "loans": 6624,
      "andan": 6625,
      "prop": 6626,
      "ighth": 6627,
      "agents": 6628,
      "parador": 6629,
      "aked": 6630,
      "akers": 6631,
      "ageing": 6632,
      "feels": 6633,
      "goon": 6634,
      "ideas": 6635,
      "fertil": 6636,
      "moving": 6637,
      "creation": 6638,
      "croat": 6639,
      "offices": 6640,
      "trainer": 6641,
      "butt": 6642,
      "solon": 6643,
      "wells": 6644,
      "bikie": 6645,
      "postal": 6646,
      "keeping": 6647,
      "expands": 6648,
      "prawn": 6649,
      "hotels": 6650,
      "disputes": 6651,
      "limited": 6652,
      "produce": 6653,
      "beaches": 6654,
      "placed": 6655,
      "privacy": 6656,
      "jeop": 6657,
      "apologise": 6658,
      "plague": 6659,
      "introduce": 6660,
      "built": 6661,
      "papers": 6662,
      "reminded": 6663,
      "connection": 6664,
      "lifesaving": 6665,
      "stuart": 6666,
      "partnership": 6667,
      "fundraising": 6668,
      "wickets": 6669,
      "reshuffle": 6670,
      "whistleblower": 6671,
      "stevens": 6672,
      "timetable": 6673,
      "fletcher": 6674,
      "jersey": 6675,
      "kosciuszko": 6676,
      "bli": 6677,
      "cells": 6678,
      "fton": 6679,
      "gow": 6680,
      "kl": 6681,
      "lom": 6682,
      "patt": 6683,
      "rand": 6684,
      "erce": 6685,
      "aret": 6686,
      "ense": 6687,
      "toads": 6688,
      "acqu": 6689,
      "leic": 6690,
      "chn": 6691,
      "older": 6692,
      "thump": 6693,
      "rider": 6694,
      "proto": 6695,
      "bek": 6696,
      "agno": 6697,
      "isters": 6698,
      "istans": 6699,
      "inders": 6700,
      "cox": 6701,
      "attempts": 6702,
      "mise": 6703,
      "perfect": 6704,
      "watson": 6705,
      "lays": 6706,
      "formula": 6707,
      "attacker": 6708,
      "reporting": 6709,
      "medals": 6710,
      "interrog": 6711,
      "buchan": 6712,
      "strikers": 6713,
      "carey": 6714,
      "pushing": 6715,
      "ocide": 6716,
      "monaro": 6717,
      "when": 6718,
      "genocide": 6719,
      "diagno": 6720,
      "hervey": 6721,
      "pride": 6722,
      "dani": 6723,
      "shipping": 6724,
      "hearings": 6725,
      "kidney": 6726,
      "bowling": 6727,
      "employers": 6728,
      "recovered": 6729,
      "hailed": 6730,
      "destru": 6731,
      "follows": 6732,
      "gangland": 6733,
      "woodside": 6734,
      "baseball": 6735,
      "dominates": 6736,
      "seriously": 6737,
      "applications": 6738,
      "citizens": 6739,
      "communication": 6740,
      "communications": 6741,
      "aquac": 6742,
      "hungry": 6743,
      "corporate": 6744,
      "relationship": 6745,
      "asthma": 6746,
      "gerrard": 6747,
      "musharraf": 6748,
      "katich": 6749,
      "arroyo": 6750,
      "raikk": 6751,
      "baf": 6752,
      "cable": 6753,
      "iop": 6754,
      "length": 6755,
      "nit": 6756,
      "nik": 6757,
      "tin": 6758,
      "wicket": 6759,
      "wider": 6760,
      "iner": 6761,
      "alston": 6762,
      "allocation": 6763,
      "ingrid": 6764,
      "choo": 6765,
      "detain": 6766,
      "demise": 6767,
      "igan": 6768,
      "iment": 6769,
      "couples": 6770,
      "upholds": 6771,
      "iaea": 6772,
      "hodge": 6773,
      "vics": 6774,
      "etric": 6775,
      "itsch": 6776,
      "murdoch": 6777,
      "ministry": 6778,
      "denmark": 6779,
      "buff": 6780,
      "phase": 6781,
      "precin": 6782,
      "shoai": 6783,
      "annual": 6784,
      "monto": 6785,
      "brook": 6786,
      "israelis": 6787,
      "euthan": 6788,
      "teaching": 6789,
      "brakes": 6790,
      "electorate": 6791,
      "salary": 6792,
      "belg": 6793,
      "races": 6794,
      "elders": 6795,
      "bloom": 6796,
      "addresses": 6797,
      "discusses": 6798,
      "wright": 6799,
      "keeper": 6800,
      "untary": 6801,
      "collins": 6802,
      "specialists": 6803,
      "processing": 6804,
      "surgeons": 6805,
      "windsor": 6806,
      "deported": 6807,
      "secretary": 6808,
      "administration": 6809,
      "advisory": 6810,
      "impressed": 6811,
      "migrant": 6812,
      "encouraged": 6813,
      "passport": 6814,
      "switch": 6815,
      "agriculture": 6816,
      "bruce": 6817,
      "bryant": 6818,
      "plunge": 6819,
      "venezuela": 6820,
      "dementia": 6821,
      "repeat": 6822,
      "augusta": 6823,
      "coordin": 6824,
      "completion": 6825,
      "swoop": 6826,
      "junior": 6827,
      "karzai": 6828,
      "language": 6829,
      "crucial": 6830,
      "clinton": 6831,
      "amrozi": 6832,
      "billiton": 6833,
      "paradorn": 6834,
      "protocol": 6835,
      "aquaculture": 6836,
      "raikkonen": 6837,
      "precinct": 6838,
      "bie": 6839,
      "cade": 6840,
      "dumps": 6841,
      "ditch": 6842,
      "hatch": 6843,
      "jer": 6844,
      "luc": 6845,
      "oon": 6846,
      "picks": 6847,
      "rass": 6848,
      "tres": 6849,
      "tokyo": 6850,
      "rey": 6851,
      "reopening": 6852,
      "rethinks": 6853,
      "atl": 6854,
      "atu": 6855,
      "atures": 6856,
      "eden": 6857,
      "edwards": 6858,
      "forens": 6859,
      "usive": 6860,
      "amal": 6861,
      "amend": 6862,
      "ambro": 6863,
      "overcome": 6864,
      "bean": 6865,
      "shines": 6866,
      "spear": 6867,
      "ctive": 6868,
      "abol": 6869,
      "ultim": 6870,
      "comfor": 6871,
      "heim": 6872,
      "boots": 6873,
      "tees": 6874,
      "iver": 6875,
      "firefighter": 6876,
      "doom": 6877,
      "bert": 6878,
      "nothing": 6879,
      "gradu": 6880,
      "graphy": 6881,
      "notch": 6882,
      "preser": 6883,
      "ghters": 6884,
      "opened": 6885,
      "welsh": 6886,
      "auck": 6887,
      "murdering": 6888,
      "searches": 6889,
      "merc": 6890,
      "cutting": 6891,
      "relieved": 6892,
      "wellington": 6893,
      "focused": 6894,
      "plement": 6895,
      "appropri": 6896,
      "ogle": 6897,
      "diving": 6898,
      "doubtful": 6899,
      "voluntary": 6900,
      "flower": 6901,
      "giving": 6902,
      "burnie": 6903,
      "jewish": 6904,
      "canegrowers": 6905,
      "every": 6906,
      "mortem": 6907,
      "declare": 6908,
      "cinem": 6909,
      "chicken": 6910,
      "dinosaur": 6911,
      "filipino": 6912,
      "obstetric": 6913,
      "poultry": 6914,
      "athletics": 6915,
      "katrina": 6916,
      "choose": 6917,
      "bumper": 6918,
      "ek": 6919,
      "foul": 6920,
      "gig": 6921,
      "gies": 6922,
      "iod": 6923,
      "knew": 6924,
      "kina": 6925,
      "malth": 6926,
      "smart": 6927,
      "infect": 6928,
      "alan": 6929,
      "eny": 6930,
      "enrol": 6931,
      "reid": 6932,
      "recalls": 6933,
      "editor": 6934,
      "defect": 6935,
      "unable": 6936,
      "conspir": 6937,
      "convoy": 6938,
      "gex": 6939,
      "negl": 6940,
      "andre": 6941,
      "resur": 6942,
      "minent": 6943,
      "means": 6944,
      "joys": 6945,
      "jockey": 6946,
      "downgra": 6947,
      "downpour": 6948,
      "forms": 6949,
      "revised": 6950,
      "maher": 6951,
      "flinders": 6952,
      "norman": 6953,
      "capsi": 6954,
      "ballo": 6955,
      "gunman": 6956,
      "gunned": 6957,
      "shootings": 6958,
      "below": 6959,
      "belgian": 6960,
      "fluor": 6961,
      "hips": 6962,
      "values": 6963,
      "cheaper": 6964,
      "maleny": 6965,
      "rescues": 6966,
      "licences": 6967,
      "indecent": 6968,
      "worths": 6969,
      "energex": 6970,
      "transplant": 6971,
      "tighten": 6972,
      "latrobe": 6973,
      "copy": 6974,
      "bribery": 6975,
      "clinch": 6976,
      "selectors": 6977,
      "digital": 6978,
      "inspections": 6979,
      "mexican": 6980,
      "daughters": 6981,
      "lunch": 6982,
      "photograph": 6983,
      "ethiop": 6984,
      "disciplin": 6985,
      "bottle": 6986,
      "slightly": 6987,
      "purchase": 6988,
      "squeeze": 6989,
      "cigaret": 6990,
      "shoaib": 6991,
      "amalgam": 6992,
      "ambrose": 6993,
      "auckland": 6994,
      "cun": 6995,
      "fis": 6996,
      "gag": 6997,
      "myer": 6998,
      "tare": 6999,
      "tles": 7000,
      "zbol": 7001,
      "ined": 7002,
      "ardis": 7003,
      "enjoys": 7004,
      "toward": 7005,
      "relay": 7006,
      "atm": 7007,
      "dep": 7008,
      "unearth": 7009,
      "omera": 7010,
      "confront": 7011,
      "opin": 7012,
      "overturns": 7013,
      "shift": 7014,
      "mandela": 7015,
      "ulla": 7016,
      "coon": 7017,
      "emiss": 7018,
      "dereg": 7019,
      "atters": 7020,
      "parkes": 7021,
      "ivan": 7022,
      "minute": 7023,
      "period": 7024,
      "feud": 7025,
      "tracks": 7026,
      "effects": 7027,
      "descri": 7028,
      "compuls": 7029,
      "souths": 7030,
      "publish": 7031,
      "ministerial": 7032,
      "therapy": 7033,
      "fallout": 7034,
      "powerful": 7035,
      "holder": 7036,
      "erald": 7037,
      "mills": 7038,
      "pakistans": 7039,
      "towers": 7040,
      "rused": 7041,
      "koreas": 7042,
      "slater": 7043,
      "riders": 7044,
      "bankrupt": 7045,
      "alpine": 7046,
      "staying": 7047,
      "emerge": 7048,
      "morrow": 7049,
      "moratorium": 7050,
      "fulham": 7051,
      "volcano": 7052,
      "qualified": 7053,
      "ranking": 7054,
      "batter": 7055,
      "bolton": 7056,
      "rigan": 7057,
      "provision": 7058,
      "juvent": 7059,
      "springbok": 7060,
      "activity": 7061,
      "activities": 7062,
      "heroes": 7063,
      "clinches": 7064,
      "leaked": 7065,
      "buying": 7066,
      "promotes": 7067,
      "dpi": 7068,
      "determine": 7069,
      "lords": 7070,
      "cairn": 7071,
      "stalled": 7072,
      "spreads": 7073,
      "sitting": 7074,
      "widow": 7075,
      "colombia": 7076,
      "kirk": 7077,
      "drunken": 7078,
      "tanks": 7079,
      "extradited": 7080,
      "paramed": 7081,
      "wifes": 7082,
      "genetic": 7083,
      "uzbek": 7084,
      "euthanasia": 7085,
      "zbollah": 7086,
      "compulsory": 7087,
      "juventus": 7088,
      "fow": 7089,
      "flip": 7090,
      "hti": 7091,
      "horses": 7092,
      "jen": 7093,
      "jagu": 7094,
      "kh": 7095,
      "pne": 7096,
      "pbs": 7097,
      "qat": 7098,
      "rath": 7099,
      "tay": 7100,
      "via": 7101,
      "ori": 7102,
      "orchest": 7103,
      "tomorrow": 7104,
      "reason": 7105,
      "itime": 7106,
      "ille": 7107,
      "roe": 7108,
      "rose": 7109,
      "chapp": 7110,
      "oly": 7111,
      "tszy": 7112,
      "eland": 7113,
      "riding": 7114,
      "iring": 7115,
      "los": 7116,
      "opec": 7117,
      "implement": 7118,
      "proced": 7119,
      "plenty": 7120,
      "nsl": 7121,
      "athlon": 7122,
      "hoon": 7123,
      "endor": 7124,
      "landcare": 7125,
      "marad": 7126,
      "maritime": 7127,
      "disappoint": 7128,
      "contention": 7129,
      "docks": 7130,
      "wod": 7131,
      "workcover": 7132,
      "oussis": 7133,
      "highest": 7134,
      "avert": 7135,
      "schwar": 7136,
      "tried": 7137,
      "lyon": 7138,
      "testify": 7139,
      "tyson": 7140,
      "boosting": 7141,
      "grafton": 7142,
      "defy": 7143,
      "tale": 7144,
      "effic": 7145,
      "norfolk": 7146,
      "investigating": 7147,
      "string": 7148,
      "willing": 7149,
      "rejection": 7150,
      "naming": 7151,
      "accuse": 7152,
      "foundation": 7153,
      "grower": 7154,
      "why": 7155,
      "whar": 7156,
      "holy": 7157,
      "hamilton": 7158,
      "palmer": 7159,
      "nazi": 7160,
      "slain": 7161,
      "faul": 7162,
      "targeting": 7163,
      "vanu": 7164,
      "immunity": 7165,
      "controls": 7166,
      "bailed": 7167,
      "reception": 7168,
      "fairfax": 7169,
      "indefin": 7170,
      "bashed": 7171,
      "properties": 7172,
      "cosgrove": 7173,
      "escapees": 7174,
      "pastoral": 7175,
      "dinho": 7176,
      "hurricanes": 7177,
      "dawn": 7178,
      "americans": 7179,
      "boundaries": 7180,
      "crushes": 7181,
      "seizure": 7182,
      "academy": 7183,
      "montreal": 7184,
      "piracy": 7185,
      "forecasts": 7186,
      "homelessness": 7187,
      "yachts": 7188,
      "tennant": 7189,
      "ronaldinho": 7190,
      "migrants": 7191,
      "briefing": 7192,
      "bakhti": 7193,
      "spiking": 7194,
      "mediate": 7195,
      "collapses": 7196,
      "privatisation": 7197,
      "fossil": 7198,
      "berlusconi": 7199,
      "patterson": 7200,
      "fluoride": 7201,
      "rusedski": 7202,
      "provisional": 7203,
      "pneum": 7204,
      "dat": 7205,
      "eba": 7206,
      "hagan": 7207,
      "iro": 7208,
      "lies": 7209,
      "lane": 7210,
      "mri": 7211,
      "mates": 7212,
      "pump": 7213,
      "qas": 7214,
      "ratt": 7215,
      "slay": 7216,
      "tighter": 7217,
      "vens": 7218,
      "vff": 7219,
      "arist": 7220,
      "sty": 7221,
      "ache": 7222,
      "leys": 7223,
      "lap": 7224,
      "adh": 7225,
      "iding": 7226,
      "beaut": 7227,
      "cough": 7228,
      "shan": 7229,
      "shape": 7230,
      "affe": 7231,
      "otic": 7232,
      "apply": 7233,
      "mantle": 7234,
      "outrage": 7235,
      "explan": 7236,
      "pear": 7237,
      "emp": 7238,
      "misery": 7239,
      "acting": 7240,
      "ghans": 7241,
      "blind": 7242,
      "margin": 7243,
      "dokic": 7244,
      "woomera": 7245,
      "berri": 7246,
      "courses": 7247,
      "aven": 7248,
      "ardi": 7249,
      "changing": 7250,
      "tractor": 7251,
      "scu": 7252,
      "guides": 7253,
      "bushwalker": 7254,
      "hopman": 7255,
      "trop": 7256,
      "barbar": 7257,
      "searching": 7258,
      "consideration": 7259,
      "here": 7260,
      "baiting": 7261,
      "debates": 7262,
      "steal": 7263,
      "assaulted": 7264,
      "clarence": 7265,
      "racial": 7266,
      "subdivision": 7267,
      "signific": 7268,
      "producer": 7269,
      "germans": 7270,
      "square": 7271,
      "fairy": 7272,
      "bandits": 7273,
      "ronic": 7274,
      "philippoussis": 7275,
      "woolies": 7276,
      "direct": 7277,
      "majority": 7278,
      "jetty": 7279,
      "craig": 7280,
      "blockade": 7281,
      "auditor": 7282,
      "kidnappers": 7283,
      "tiwi": 7284,
      "syrian": 7285,
      "mortar": 7286,
      "stalls": 7287,
      "pigs": 7288,
      "delivery": 7289,
      "widens": 7290,
      "engineers": 7291,
      "ceasefire": 7292,
      "tallis": 7293,
      "agricultural": 7294,
      "sawmill": 7295,
      "loyal": 7296,
      "disgraced": 7297,
      "sponsorship": 7298,
      "mickelson": 7299,
      "tidy": 7300,
      "advertising": 7301,
      "myskina": 7302,
      "fertiliser": 7303,
      "lomu": 7304,
      "buchanan": 7305,
      "destruction": 7306,
      "malthouse": 7307,
      "taree": 7308,
      "qatar": 7309,
      "maradona": 7310,
      "wodonga": 7311,
      "vanuatu": 7312,
      "dles": 7313,
      "dakar": 7314,
      "hr": 7315,
      "lov": 7316,
      "lovers": 7317,
      "nim": 7318,
      "nff": 7319,
      "punt": 7320,
      "rgy": 7321,
      "raction": 7322,
      "scept": 7323,
      "tt": 7324,
      "vit": 7325,
      "stages": 7326,
      "acchi": 7327,
      "roar": 7328,
      "chips": 7329,
      "elift": 7330,
      "igue": 7331,
      "overdo": 7332,
      "bey": 7333,
      "illance": 7334,
      "affects": 7335,
      "abduct": 7336,
      "height": 7337,
      "both": 7338,
      "taip": 7339,
      "taste": 7340,
      "outcome": 7341,
      "cloning": 7342,
      "mentally": 7343,
      "blunder": 7344,
      "assurance": 7345,
      "ivf": 7346,
      "ivo": 7347,
      "disarm": 7348,
      "mega": 7349,
      "peril": 7350,
      "coral": 7351,
      "positions": 7352,
      "chancell": 7353,
      "trend": 7354,
      "ignore": 7355,
      "labelled": 7356,
      "guy": 7357,
      "elects": 7358,
      "fightback": 7359,
      "inject": 7360,
      "schoolgirl": 7361,
      "facelift": 7362,
      "dravid": 7363,
      "inters": 7364,
      "safer": 7365,
      "monaco": 7366,
      "renmark": 7367,
      "thorn": 7368,
      "beating": 7369,
      "floats": 7370,
      "buildings": 7371,
      "slur": 7372,
      "memo": 7373,
      "peaceful": 7374,
      "russians": 7375,
      "bungle": 7376,
      "diva": 7377,
      "bayern": 7378,
      "frontbench": 7379,
      "smokers": 7380,
      "petacchi": 7381,
      "succum": 7382,
      "fares": 7383,
      "kyrgy": 7384,
      "potato": 7385,
      "directors": 7386,
      "grim": 7387,
      "pitcairn": 7388,
      "bribe": 7389,
      "sidelined": 7390,
      "membership": 7391,
      "expectations": 7392,
      "paedophiles": 7393,
      "stoner": 7394,
      "hussey": 7395,
      "sailors": 7396,
      "abandons": 7397,
      "nominated": 7398,
      "wetlands": 7399,
      "learning": 7400,
      "subsidies": 7401,
      "builds": 7402,
      "lung": 7403,
      "garden": 7404,
      "cambodia": 7405,
      "advocate": 7406,
      "encourages": 7407,
      "warrant": 7408,
      "dolphins": 7409,
      "apartment": 7410,
      "redundancy": 7411,
      "breeding": 7412,
      "minimum": 7413,
      "lynch": 7414,
      "surveillance": 7415,
      "roberts": 7416,
      "outraged": 7417,
      "belgium": 7418,
      "forensic": 7419,
      "jaguar": 7420,
      "taylor": 7421,
      "wharf": 7422,
      "kyrgyz": 7423,
      "eating": 7424,
      "gift": 7425,
      "hk": 7426,
      "hes": 7427,
      "hart": 7428,
      "rf": 7429,
      "tong": 7430,
      "wf": 7431,
      "yarra": 7432,
      "yemen": 7433,
      "allaw": 7434,
      "stack": 7435,
      "recalled": 7436,
      "recovers": 7437,
      "rover": 7438,
      "ols": 7439,
      "raising": 7440,
      "seeds": 7441,
      "polish": 7442,
      "ceme": 7443,
      "spit": 7444,
      "aggress": 7445,
      "ultr": 7446,
      "hezbollah": 7447,
      "utd": 7448,
      "astro": 7449,
      "roud": 7450,
      "goat": 7451,
      "goers": 7452,
      "google": 7453,
      "richar": 7454,
      "hello": 7455,
      "underground": 7456,
      "scale": 7457,
      "centen": 7458,
      "mah": 7459,
      "regist": 7460,
      "daylight": 7461,
      "paying": 7462,
      "territor": 7463,
      "oscar": 7464,
      "westpac": 7465,
      "ysis": 7466,
      "preference": 7467,
      "gah": 7468,
      "barric": 7469,
      "snip": 7470,
      "evans": 7471,
      "umpire": 7472,
      "smashes": 7473,
      "failures": 7474,
      "ponent": 7475,
      "please": 7476,
      "postp": 7477,
      "promised": 7478,
      "largest": 7479,
      "fah": 7480,
      "fatality": 7481,
      "lonard": 7482,
      "immigr": 7483,
      "escaped": 7484,
      "koala": 7485,
      "basslink": 7486,
      "turnbull": 7487,
      "chambers": 7488,
      "weapon": 7489,
      "tornad": 7490,
      "blueprint": 7491,
      "entertain": 7492,
      "observ": 7493,
      "stunned": 7494,
      "treasury": 7495,
      "egg": 7496,
      "referee": 7497,
      "rental": 7498,
      "papu": 7499,
      "trigger": 7500,
      "bureaucr": 7501,
      "influx": 7502,
      "assem": 7503,
      "autopsy": 7504,
      "bosnian": 7505,
      "drilling": 7506,
      "principal": 7507,
      "moment": 7508,
      "tszyu": 7509,
      "datab": 7510,
      "explanation": 7511,
      "taipans": 7512,
      "succumbs": 7513,
      "clif": 7514,
      "dv": 7515,
      "hort": 7516,
      "hut": 7517,
      "hire": 7518,
      "ios": 7519,
      "jama": 7520,
      "kham": 7521,
      "mla": 7522,
      "pam": 7523,
      "pino": 7524,
      "rta": 7525,
      "renders": 7526,
      "tonga": 7527,
      "ude": 7528,
      "oneste": 7529,
      "anu": 7530,
      "anbe": 7531,
      "sticks": 7532,
      "rebuilding": 7533,
      "atta": 7534,
      "icon": 7535,
      "rode": 7536,
      "chil": 7537,
      "chir": 7538,
      "deer": 7539,
      "thal": 7540,
      "thir": 7541,
      "concess": 7542,
      "neck": 7543,
      "pling": 7544,
      "respect": 7545,
      "hem": 7546,
      "outline": 7547,
      "worsen": 7548,
      "crun": 7549,
      "portfol": 7550,
      "ailing": 7551,
      "buses": 7552,
      "disney": 7553,
      "brink": 7554,
      "permit": 7555,
      "surface": 7556,
      "cancel": 7557,
      "scraps": 7558,
      "timing": 7559,
      "hait": 7560,
      "snake": 7561,
      "holling": 7562,
      "istanbul": 7563,
      "even": 7564,
      "austrian": 7565,
      "bidding": 7566,
      "mccart": 7567,
      "died": 7568,
      "harass": 7569,
      "campaigns": 7570,
      "donors": 7571,
      "vizard": 7572,
      "primary": 7573,
      "bencher": 7574,
      "operating": 7575,
      "extrem": 7576,
      "queanbe": 7577,
      "salmon": 7578,
      "cheese": 7579,
      "festiv": 7580,
      "bowen": 7581,
      "trek": 7582,
      "woolworths": 7583,
      "toronto": 7584,
      "recognition": 7585,
      "distance": 7586,
      "buyback": 7587,
      "execution": 7588,
      "painting": 7589,
      "satur": 7590,
      "feeding": 7591,
      "ological": 7592,
      "acoss": 7593,
      "marshall": 7594,
      "knocks": 7595,
      "locusts": 7596,
      "builder": 7597,
      "arthur": 7598,
      "several": 7599,
      "romania": 7600,
      "resistance": 7601,
      "didnt": 7602,
      "tuckey": 7603,
      "dilem": 7604,
      "blix": 7605,
      "gunnedah": 7606,
      "emissions": 7607,
      "deregulation": 7608,
      "rfds": 7609,
      "onesteel": 7610,
      "mccartney": 7611,
      "queanbeyan": 7612,
      "cul": 7613,
      "cass": 7614,
      "cafe": 7615,
      "dons": 7616,
      "flaw": 7617,
      "jur": 7618,
      "km": 7619,
      "kay": 7620,
      "kab": 7621,
      "mouse": 7622,
      "soil": 7623,
      "sisters": 7624,
      "uck": 7625,
      "vp": 7626,
      "yi": 7627,
      "your": 7628,
      "zheim": 7629,
      "alzheim": 7630,
      "delight": 7631,
      "sevens": 7632,
      "irb": 7633,
      "imf": 7634,
      "prospect": 7635,
      "pless": 7636,
      "ceeds": 7637,
      "spoil": 7638,
      "complac": 7639,
      "ieva": 7640,
      "wars": 7641,
      "quin": 7642,
      "outclass": 7643,
      "word": 7644,
      "poon": 7645,
      "carter": 7646,
      "winery": 7647,
      "maroo": 7648,
      "diss": 7649,
      "contempt": 7650,
      "doyle": 7651,
      "finances": 7652,
      "goods": 7653,
      "murphy": 7654,
      "revive": 7655,
      "cypr": 7656,
      "regrets": 7657,
      "archae": 7658,
      "colleagues": 7659,
      "damaging": 7660,
      "gaz": 7661,
      "monkey": 7662,
      "apping": 7663,
      "visas": 7664,
      "briton": 7665,
      "bulgar": 7666,
      "mcc": 7667,
      "gungah": 7668,
      "affairs": 7669,
      "campaigner": 7670,
      "hurdle": 7671,
      "clarify": 7672,
      "hills": 7673,
      "expanded": 7674,
      "boro": 7675,
      "pricing": 7676,
      "betfair": 7677,
      "limbo": 7678,
      "victorians": 7679,
      "freak": 7680,
      "products": 7681,
      "robbers": 7682,
      "trucking": 7683,
      "voss": 7684,
      "voices": 7685,
      "panic": 7686,
      "drawn": 7687,
      "docklands": 7688,
      "christian": 7689,
      "condemned": 7690,
      "tame": 7691,
      "copper": 7692,
      "predictions": 7693,
      "wilder": 7694,
      "distur": 7695,
      "deportivo": 7696,
      "since": 7697,
      "fleet": 7698,
      "hussain": 7699,
      "chenko": 7700,
      "inspect": 7701,
      "rockets": 7702,
      "importance": 7703,
      "practices": 7704,
      "cameraman": 7705,
      "electrical": 7706,
      "disrupts": 7707,
      "microscope": 7708,
      "mastermind": 7709,
      "departure": 7710,
      "netballers": 7711,
      "shelter": 7712,
      "sustainable": 7713,
      "punishment": 7714,
      "astronom": 7715,
      "stricken": 7716,
      "wentworth": 7717,
      "pregnant": 7718,
      "allocations": 7719,
      "penguin": 7720,
      "pumas": 7721,
      "appropriate": 7722,
      "chappell": 7723,
      "bakhtiy": 7724,
      "pneumonia": 7725,
      "chirac": 7726,
      "maroochy": 7727,
      "cyprus": 7728,
      "gungahlin": 7729,
      "coff": 7730,
      "cray": 7731,
      "eta": 7732,
      "gg": 7733,
      "hell": 7734,
      "iency": 7735,
      "kor": 7736,
      "kind": 7737,
      "pound": 7738,
      "proud": 7739,
      "ril": 7740,
      "sound": 7741,
      "wd": 7742,
      "whel": 7743,
      "wire": 7744,
      "yuk": 7745,
      "inland": 7746,
      "ord": 7747,
      "orley": 7748,
      "along": 7749,
      "reconsider": 7750,
      "recreation": 7751,
      "atp": 7752,
      "inge": 7753,
      "acity": 7754,
      "chet": 7755,
      "choos": 7756,
      "thank": 7757,
      "una": 7758,
      "unaware": 7759,
      "proceed": 7760,
      "bevan": 7761,
      "sher": 7762,
      "shir": 7763,
      "sheds": 7764,
      "spott": 7765,
      "boards": 7766,
      "excl": 7767,
      "exod": 7768,
      "crane": 7769,
      "ems": 7770,
      "inee": 7771,
      "esso": 7772,
      "bang": 7773,
      "minardi": 7774,
      "brits": 7775,
      "bern": 7776,
      "surrenders": 7777,
      "ardy": 7778,
      "prescri": 7779,
      "foods": 7780,
      "internal": 7781,
      "clock": 7782,
      "nambo": 7783,
      "colon": 7784,
      "colling": 7785,
      "protester": 7786,
      "occup": 7787,
      "leskie": 7788,
      "snares": 7789,
      "holm": 7790,
      "swing": 7791,
      "button": 7792,
      "prisons": 7793,
      "birney": 7794,
      "birming": 7795,
      "indonesias": 7796,
      "miller": 7797,
      "teles": 7798,
      "singer": 7799,
      "patrick": 7800,
      "retreat": 7801,
      "venue": 7802,
      "passion": 7803,
      "ankle": 7804,
      "stewart": 7805,
      "assaulting": 7806,
      "standard": 7807,
      "challenged": 7808,
      "betting": 7809,
      "tasmanias": 7810,
      "proposals": 7811,
      "azz": 7812,
      "watching": 7813,
      "nalband": 7814,
      "contractor": 7815,
      "current": 7816,
      "friday": 7817,
      "federation": 7818,
      "hawk": 7819,
      "revamped": 7820,
      "improvements": 7821,
      "protected": 7822,
      "catches": 7823,
      "lux": 7824,
      "helicopters": 7825,
      "dentist": 7826,
      "vietnamese": 7827,
      "iii": 7828,
      "triumphs": 7829,
      "peacekeeping": 7830,
      "warrnambo": 7831,
      "june": 7832,
      "rampage": 7833,
      "backpackers": 7834,
      "vieira": 7835,
      "drunk": 7836,
      "moroccan": 7837,
      "neighbours": 7838,
      "kosov": 7839,
      "ravaged": 7840,
      "razor": 7841,
      "tensions": 7842,
      "depression": 7843,
      "literacy": 7844,
      "demonstr": 7845,
      "leicester": 7846,
      "bankruptcy": 7847,
      "megawat": 7848,
      "cemetery": 7849,
      "tornado": 7850,
      "database": 7851,
      "cliffe": 7852,
      "hortic": 7853,
      "rodeo": 7854,
      "alzheimers": 7855,
      "yukos": 7856,
      "exodus": 7857,
      "birmingham": 7858,
      "nalbandian": 7859,
      "bate": 7860,
      "bells": 7861,
      "cure": 7862,
      "dial": 7863,
      "evict": 7864,
      "hugh": 7865,
      "jay": 7866,
      "jka": 7867,
      "kild": 7868,
      "lth": 7869,
      "mend": 7870,
      "others": 7871,
      "wan": 7872,
      "yne": 7873,
      "oni": 7874,
      "rec": 7875,
      "retrial": 7876,
      "relocation": 7877,
      "itarian": 7878,
      "forbes": 7879,
      "urers": 7880,
      "thick": 7881,
      "lamy": 7882,
      "adler": 7883,
      "overwhel": 7884,
      "bee": 7885,
      "coulth": 7886,
      "abused": 7887,
      "hep": 7888,
      "heist": 7889,
      "quota": 7890,
      "earnings": 7891,
      "attracts": 7892,
      "ghai": 7893,
      "blan": 7894,
      "akh": 7895,
      "aken": 7896,
      "ellison": 7897,
      "berlin": 7898,
      "workshops": 7899,
      "moder": 7900,
      "ifer": 7901,
      "secured": 7902,
      "helped": 7903,
      "auts": 7904,
      "duel": 7905,
      "sizz": 7906,
      "walter": 7907,
      "walkers": 7908,
      "whits": 7909,
      "eva": 7910,
      "swap": 7911,
      "reviewed": 7912,
      "merge": 7913,
      "taxpayers": 7914,
      "donald": 7915,
      "relatives": 7916,
      "primed": 7917,
      "primus": 7918,
      "extin": 7919,
      "gasp": 7920,
      "hurst": 7921,
      "blackburn": 7922,
      "larkham": 7923,
      "africas": 7924,
      "boarding": 7925,
      "flooded": 7926,
      "morgan": 7927,
      "sumat": 7928,
      "packing": 7929,
      "oversee": 7930,
      "beachley": 7931,
      "lankans": 7932,
      "writer": 7933,
      "shoppers": 7934,
      "employee": 7935,
      "humanitarian": 7936,
      "improvement": 7937,
      "seventh": 7938,
      "neglect": 7939,
      "torch": 7940,
      "minerals": 7941,
      "nomination": 7942,
      "queenslanders": 7943,
      "arafats": 7944,
      "surfing": 7945,
      "digs": 7946,
      "negotiate": 7947,
      "suffering": 7948,
      "scrapping": 7949,
      "lifesavers": 7950,
      "sustainability": 7951,
      "different": 7952,
      "mandatory": 7953,
      "lodges": 7954,
      "commemor": 7955,
      "winemakers": 7956,
      "pioneer": 7957,
      "dodgy": 7958,
      "random": 7959,
      "montoya": 7960,
      "cinema": 7961,
      "conspiracy": 7962,
      "aristide": 7963,
      "shanghai": 7964,
      "perilya": 7965,
      "dilemma": 7966,
      "collingwood": 7967,
      "megawati": 7968,
      "coulthard": 7969,
      "ais": 7970,
      "axed": 7971,
      "dum": 7972,
      "dail": 7973,
      "dren": 7974,
      "gates": 7975,
      "jaco": 7976,
      "july": 7977,
      "kall": 7978,
      "kph": 7979,
      "mim": 7980,
      "nist": 7981,
      "tear": 7982,
      "vsu": 7983,
      "vous": 7984,
      "inte": 7985,
      "info": 7986,
      "erad": 7987,
      "escal": 7988,
      "enforce": 7989,
      "tout": 7990,
      "rela": 7991,
      "reunited": 7992,
      "atum": 7993,
      "leap": 7994,
      "chester": 7995,
      "uns": 7996,
      "units": 7997,
      "lament": 7998,
      "amaz": 7999,
      "irans": 8000,
      "overboard": 8001,
      "spell": 8002,
      "april": 8003,
      "agger": 8004,
      "ulli": 8005,
      "comb": 8006,
      "heal": 8007,
      "warwick": 8008,
      "outburst": 8009,
      "worsens": 8010,
      "lia": 8011,
      "offence": 8012,
      "asts": 8013,
      "tea": 8014,
      "backflip": 8015,
      "trades": 8016,
      "trails": 8017,
      "tragic": 8018,
      "mari": 8019,
      "mete": 8020,
      "downed": 8021,
      "moomba": 8022,
      "pubs": 8023,
      "graham": 8024,
      "defies": 8025,
      "regular": 8026,
      "dingo": 8027,
      "intervene": 8028,
      "dayers": 8029,
      "duff": 8030,
      "strand": 8031,
      "accusations": 8032,
      "grace": 8033,
      "barra": 8034,
      "ieri": 8035,
      "dips": 8036,
      "greene": 8037,
      "float": 8038,
      "fatigue": 8039,
      "electronic": 8040,
      "expuls": 8041,
      "victorias": 8042,
      "nearing": 8043,
      "steroid": 8044,
      "ipswich": 8045,
      "ranks": 8046,
      "lifting": 8047,
      "possib": 8048,
      "slowdown": 8049,
      "juana": 8050,
      "ception": 8051,
      "britains": 8052,
      "negative": 8053,
      "farewelled": 8054,
      "smaller": 8055,
      "easing": 8056,
      "americas": 8057,
      "anaes": 8058,
      "shutdown": 8059,
      "bounty": 8060,
      "mistakes": 8061,
      "shiites": 8062,
      "awb": 8063,
      "seniors": 8064,
      "container": 8065,
      "strengthen": 8066,
      "situation": 8067,
      "judicial": 8068,
      "guarantees": 8069,
      "excise": 8070,
      "spraying": 8071,
      "kurds": 8072,
      "buckley": 8073,
      "carrying": 8074,
      "toyota": 8075,
      "loeb": 8076,
      "kasper": 8077,
      "psychiatric": 8078,
      "rubbish": 8079,
      "faulty": 8080,
      "sceptical": 8081,
      "allawi": 8082,
      "barrichello": 8083,
      "crunch": 8084,
      "kabul": 8085,
      "warrnambool": 8086,
      "whitsun": 8087,
      "integr": 8088,
      "expulsion": 8089,
      "aq": 8090,
      "bones": 8091,
      "cabb": 8092,
      "dates": 8093,
      "dives": 8094,
      "equal": 8095,
      "hast": 8096,
      "houl": 8097,
      "pbl": 8098,
      "patch": 8099,
      "qlds": 8100,
      "tied": 8101,
      "von": 8102,
      "vine": 8103,
      "inf": 8104,
      "intim": 8105,
      "alo": 8106,
      "toms": 8107,
      "toler": 8108,
      "stones": 8109,
      "rogue": 8110,
      "dece": 8111,
      "rages": 8112,
      "igation": 8113,
      "rier": 8114,
      "rips": 8115,
      "oping": 8116,
      "imminent": 8117,
      "update": 8118,
      "afters": 8119,
      "afghans": 8120,
      "poly": 8121,
      "boon": 8122,
      "indoor": 8123,
      "quakes": 8124,
      "worm": 8125,
      "expresses": 8126,
      "embatt": 8127,
      "carib": 8128,
      "cardin": 8129,
      "ived": 8130,
      "ishing": 8131,
      "aires": 8132,
      "charter": 8133,
      "antic": 8134,
      "anticip": 8135,
      "perry": 8136,
      "clay": 8137,
      "goosen": 8138,
      "idemic": 8139,
      "turning": 8140,
      "moto": 8141,
      "inside": 8142,
      "insists": 8143,
      "noo": 8144,
      "scg": 8145,
      "graves": 8146,
      "revellers": 8147,
      "bushland": 8148,
      "angler": 8149,
      "epidemic": 8150,
      "dayer": 8151,
      "draper": 8152,
      "prank": 8153,
      "powerline": 8154,
      "dams": 8155,
      "accuser": 8156,
      "baros": 8157,
      "bargain": 8158,
      "britons": 8159,
      "hammers": 8160,
      "polling": 8161,
      "greenspan": 8162,
      "cahill": 8163,
      "steers": 8164,
      "steam": 8165,
      "uniform": 8166,
      "true": 8167,
      "olympians": 8168,
      "particip": 8169,
      "chechn": 8170,
      "letters": 8171,
      "substance": 8172,
      "incidents": 8173,
      "incurs": 8174,
      "interested": 8175,
      "worksafe": 8176,
      "industries": 8177,
      "marked": 8178,
      "motorbike": 8179,
      "mourning": 8180,
      "sanct": 8181,
      "habit": 8182,
      "declaration": 8183,
      "gibern": 8184,
      "booze": 8185,
      "environmentalists": 8186,
      "diplomatic": 8187,
      "executives": 8188,
      "scrapped": 8189,
      "regulator": 8190,
      "cautions": 8191,
      "generation": 8192,
      "venture": 8193,
      "priorities": 8194,
      "smugglers": 8195,
      "influence": 8196,
      "disgrace": 8197,
      "redundancies": 8198,
      "pharmac": 8199,
      "morocco": 8200,
      "embarrass": 8201,
      "bahrain": 8202,
      "reasons": 8203,
      "brushes": 8204,
      "amalgamation": 8205,
      "kirkuk": 8206,
      "paramedics": 8207,
      "tropical": 8208,
      "significant": 8209,
      "punters": 8210,
      "ultralight": 8211,
      "jamaica": 8212,
      "portfolio": 8213,
      "haitian": 8214,
      "wilderness": 8215,
      "kilda": 8216,
      "daily": 8217,
      "aftersho": 8218,
      "embattled": 8219,
      "caribbean": 8220,
      "chechnya": 8221,
      "gibernau": 8222,
      "bout": 8223,
      "cres": 8224,
      "dj": 8225,
      "fury": 8226,
      "gus": 8227,
      "god": 8228,
      "hin": 8229,
      "hore": 8230,
      "mice": 8231,
      "might": 8232,
      "mck": 8233,
      "naked": 8234,
      "page": 8235,
      "piz": 8236,
      "sides": 8237,
      "uto": 8238,
      "vy": 8239,
      "wrest": 8240,
      "xton": 8241,
      "xmas": 8242,
      "yud": 8243,
      "inaction": 8244,
      "anast": 8245,
      "alons": 8246,
      "reconstruction": 8247,
      "ately": 8248,
      "ili": 8249,
      "asa": 8250,
      "chave": 8251,
      "rays": 8252,
      "things": 8253,
      "elite": 8254,
      "laz": 8255,
      "laugh": 8256,
      "ids": 8257,
      "idis": 8258,
      "necess": 8259,
      "probab": 8260,
      "prostate": 8261,
      "alling": 8262,
      "ables": 8263,
      "heed": 8264,
      "pets": 8265,
      "umaga": 8266,
      "newman": 8267,
      "offshore": 8268,
      "hoyon": 8269,
      "carp": 8270,
      "cargo": 8271,
      "backbencher": 8272,
      "aking": 8273,
      "landers": 8274,
      "rub": 8275,
      "traum": 8276,
      "weir": 8277,
      "brut": 8278,
      "berrigan": 8279,
      "blake": 8280,
      "testifies": 8281,
      "consol": 8282,
      "syring": 8283,
      "scram": 8284,
      "fran": 8285,
      "regime": 8286,
      "capacity": 8287,
      "schoolgirls": 8288,
      "aux": 8289,
      "sydneys": 8290,
      "greet": 8291,
      "dealer": 8292,
      "colate": 8293,
      "showing": 8294,
      "walking": 8295,
      "snaps": 8296,
      "leyball": 8297,
      "runners": 8298,
      "mcgrady": 8299,
      "malaria": 8300,
      "frame": 8301,
      "zimbabwean": 8302,
      "tracking": 8303,
      "divor": 8304,
      "divide": 8305,
      "garcia": 8306,
      "hunters": 8307,
      "robot": 8308,
      "moran": 8309,
      "matter": 8310,
      "soars": 8311,
      "discussion": 8312,
      "footage": 8313,
      "writ": 8314,
      "wrangle": 8315,
      "volleyball": 8316,
      "bowlers": 8317,
      "treason": 8318,
      "index": 8319,
      "duties": 8320,
      "coronial": 8321,
      "proving": 8322,
      "eagle": 8323,
      "traffick": 8324,
      "jacksons": 8325,
      "patience": 8326,
      "sinking": 8327,
      "explor": 8328,
      "lacking": 8329,
      "bouncer": 8330,
      "hypo": 8331,
      "chocolate": 8332,
      "device": 8333,
      "drowned": 8334,
      "mums": 8335,
      "ignores": 8336,
      "contaminated": 8337,
      "stalking": 8338,
      "opportunity": 8339,
      "counsell": 8340,
      "snatches": 8341,
      "sword": 8342,
      "naval": 8343,
      "plunges": 8344,
      "affordable": 8345,
      "devils": 8346,
      "included": 8347,
      "schuett": 8348,
      "foreshore": 8349,
      "mudgee": 8350,
      "competitive": 8351,
      "poaching": 8352,
      "optus": 8353,
      "toothfish": 8354,
      "ultimatum": 8355,
      "empty": 8356,
      "chancellor": 8357,
      "sniper": 8358,
      "assembly": 8359,
      "pinochet": 8360,
      "telescope": 8361,
      "marijuana": 8362,
      "meteor": 8363,
      "anaesthe": 8364,
      "yudhoyon": 8365,
      "chavez": 8366,
      "boulder": 8367,
      "cba": 8368,
      "dian": 8369,
      "dink": 8370,
      "grid": 8371,
      "hou": 8372,
      "hair": 8373,
      "jumper": 8374,
      "kil": 8375,
      "kel": 8376,
      "nier": 8377,
      "nino": 8378,
      "oth": 8379,
      "phe": 8380,
      "pending": 8381,
      "pantan": 8382,
      "pagan": 8383,
      "rence": 8384,
      "sbs": 8385,
      "sands": 8386,
      "waca": 8387,
      "wwf": 8388,
      "xious": 8389,
      "yep": 8390,
      "ered": 8391,
      "anwar": 8392,
      "tot": 8393,
      "stumble": 8394,
      "recent": 8395,
      "reput": 8396,
      "remarks": 8397,
      "edging": 8398,
      "icals": 8399,
      "icates": 8400,
      "chases": 8401,
      "dell": 8402,
      "rax": 8403,
      "ersen": 8404,
      "une": 8405,
      "lakers": 8406,
      "entr": 8407,
      "conqu": 8408,
      "convin": 8409,
      "prostitution": 8410,
      "illy": 8411,
      "poland": 8412,
      "spent": 8413,
      "mango": 8414,
      "comet": 8415,
      "peta": 8416,
      "pokie": 8417,
      "embry": 8418,
      "emerald": 8419,
      "portu": 8420,
      "suits": 8421,
      "traders": 8422,
      "minco": 8423,
      "woo": 8424,
      "fection": 8425,
      "corrid": 8426,
      "surfer": 8427,
      "cannon": 8428,
      "triathlon": 8429,
      "underage": 8430,
      "nose": 8431,
      "secrets": 8432,
      "angling": 8433,
      "injection": 8434,
      "buoy": 8435,
      "ryder": 8436,
      "facts": 8437,
      "decides": 8438,
      "striker": 8439,
      "oscars": 8440,
      "barr": 8441,
      "where": 8442,
      "gym": 8443,
      "renov": 8444,
      "confess": 8445,
      "crip": 8446,
      "donate": 8447,
      "nude": 8448,
      "skate": 8449,
      "shooters": 8450,
      "motiv": 8451,
      "alleges": 8452,
      "allenby": 8453,
      "coaches": 8454,
      "submission": 8455,
      "zimbabwes": 8456,
      "camps": 8457,
      "ogue": 8458,
      "nervous": 8459,
      "squash": 8460,
      "matta": 8461,
      "responds": 8462,
      "flames": 8463,
      "sackings": 8464,
      "savage": 8465,
      "craw": 8466,
      "troubles": 8467,
      "sidelines": 8468,
      "sweat": 8469,
      "finished": 8470,
      "strategies": 8471,
      "arrival": 8472,
      "siev": 8473,
      "object": 8474,
      "blessing": 8475,
      "approaches": 8476,
      "spying": 8477,
      "brumby": 8478,
      "settlers": 8479,
      "washed": 8480,
      "awu": 8481,
      "sufferers": 8482,
      "magistrates": 8483,
      "ratil": 8484,
      "knocked": 8485,
      "hungary": 8486,
      "zeneg": 8487,
      "navratil": 8488,
      "detective": 8489,
      "kurdish": 8490,
      "circle": 8491,
      "spoke": 8492,
      "pharmacy": 8493,
      "foreshadows": 8494,
      "shooter": 8495,
      "adventurer": 8496,
      "algerian": 8497,
      "temperatures": 8498,
      "mules": 8499,
      "anthrax": 8500,
      "elephant": 8501,
      "sabot": 8502,
      "klitsch": 8503,
      "schwarzeneg": 8504,
      "kosovo": 8505,
      "razorbacks": 8506,
      "batemans": 8507,
      "houllier": 8508,
      "intimid": 8509,
      "alonso": 8510,
      "yudhoyono": 8511,
      "yeppoon": 8512,
      "bore": 8513,
      "cort": 8514,
      "eighth": 8515,
      "fathers": 8516,
      "got": 8517,
      "gie": 8518,
      "gathers": 8519,
      "hag": 8520,
      "ior": 8521,
      "lloy": 8522,
      "pup": 8523,
      "rust": 8524,
      "scou": 8525,
      "sending": 8526,
      "tinto": 8527,
      "ux": 8528,
      "vess": 8529,
      "washes": 8530,
      "wides": 8531,
      "ybe": 8532,
      "inno": 8533,
      "inzam": 8534,
      "arn": 8535,
      "aru": 8536,
      "arte": 8537,
      "alps": 8538,
      "tober": 8539,
      "toss": 8540,
      "stakes": 8541,
      "ede": 8542,
      "romp": 8543,
      "rooy": 8544,
      "chap": 8545,
      "olive": 8546,
      "unsafe": 8547,
      "loot": 8548,
      "loxton": 8549,
      "probing": 8550,
      "becoming": 8551,
      "beheading": 8552,
      "polar": 8553,
      "pollock": 8554,
      "hepat": 8555,
      "ques": 8556,
      "exting": 8557,
      "poo": 8558,
      "portra": 8559,
      "backyard": 8560,
      "mare": 8561,
      "bye": 8562,
      "ellis": 8563,
      "workforce": 8564,
      "rower": 8565,
      "tridge": 8566,
      "ecu": 8567,
      "moth": 8568,
      "underdog": 8569,
      "formal": 8570,
      "restoration": 8571,
      "rematch": 8572,
      "lawrence": 8573,
      "auslink": 8574,
      "mediation": 8575,
      "childhood": 8576,
      "powder": 8577,
      "haz": 8578,
      "haas": 8579,
      "hazard": 8580,
      "legion": 8581,
      "worldwide": 8582,
      "drags": 8583,
      "putting": 8584,
      "intent": 8585,
      "stras": 8586,
      "opposed": 8587,
      "coln": 8588,
      "pread": 8589,
      "pushed": 8590,
      "condom": 8591,
      "officially": 8592,
      "dying": 8593,
      "holden": 8594,
      "makybe": 8595,
      "solo": 8596,
      "priests": 8597,
      "pleas": 8598,
      "okays": 8599,
      "passed": 8600,
      "extreme": 8601,
      "slim": 8602,
      "missionary": 8603,
      "clarification": 8604,
      "racv": 8605,
      "journey": 8606,
      "voter": 8607,
      "wildcard": 8608,
      "lincoln": 8609,
      "stream": 8610,
      "blowout": 8611,
      "grandstand": 8612,
      "timorese": 8613,
      "allowance": 8614,
      "classes": 8615,
      "casa": 8616,
      "routes": 8617,
      "splash": 8618,
      "radioactive": 8619,
      "rooms": 8620,
      "throwing": 8621,
      "swimmer": 8622,
      "hickey": 8623,
      "radcliffe": 8624,
      "continuing": 8625,
      "nepalese": 8626,
      "pasminco": 8627,
      "ousted": 8628,
      "chilean": 8629,
      "dementieva": 8630,
      "kempsey": 8631,
      "sleeping": 8632,
      "isolated": 8633,
      "rwanda": 8634,
      "sculpt": 8635,
      "harrison": 8636,
      "bougain": 8637,
      "negligence": 8638,
      "cigarette": 8639,
      "endorse": 8640,
      "rattles": 8641,
      "centenary": 8642,
      "sumatra": 8643,
      "kallis": 8644,
      "nistel": 8645,
      "anasta": 8646,
      "anaesthet": 8647,
      "corridor": 8648,
      "klitschko": 8649,
      "widespread": 8650,
      "hepatitis": 8651,
      "extingu": 8652,
      "aire": 8653,
      "dur": 8654,
      "drown": 8655,
      "eco": 8656,
      "eure": 8657,
      "gut": 8658,
      "gould": 8659,
      "hide": 8660,
      "honey": 8661,
      "hmas": 8662,
      "mr": 8663,
      "mam": 8664,
      "mear": 8665,
      "oz": 8666,
      "piet": 8667,
      "sms": 8668,
      "tik": 8669,
      "zid": 8670,
      "iners": 8671,
      "inner": 8672,
      "ano": 8673,
      "ania": 8674,
      "staf": 8675,
      "retr": 8676,
      "releg": 8677,
      "itive": 8678,
      "isc": 8679,
      "oles": 8680,
      "ung": 8681,
      "lad": 8682,
      "seag": 8683,
      "contained": 8684,
      "iders": 8685,
      "loop": 8686,
      "opts": 8687,
      "proponent": 8688,
      "overcomes": 8689,
      "shoulder": 8690,
      "plug": 8691,
      "resists": 8692,
      "resorts": 8693,
      "agl": 8694,
      "ulates": 8695,
      "bob": 8696,
      "embrace": 8697,
      "fierce": 8698,
      "athy": 8699,
      "athan": 8700,
      "earners": 8701,
      "hoons": 8702,
      "mentor": 8703,
      "aka": 8704,
      "ettridge": 8705,
      "disappearance": 8706,
      "docs": 8707,
      "joke": 8708,
      "downturn": 8709,
      "ricky": 8710,
      "turf": 8711,
      "mood": 8712,
      "moots": 8713,
      "nock": 8714,
      "revises": 8715,
      "revival": 8716,
      "guese": 8717,
      "frank": 8718,
      "pows": 8719,
      "auge": 8720,
      "jailing": 8721,
      "movement": 8722,
      "securing": 8723,
      "costings": 8724,
      "grill": 8725,
      "barrett": 8726,
      "milose": 8727,
      "showcase": 8728,
      "october": 8729,
      "monday": 8730,
      "shared": 8731,
      "runway": 8732,
      "cuban": 8733,
      "developed": 8734,
      "breakdown": 8735,
      "teske": 8736,
      "gaming": 8737,
      "patri": 8738,
      "campaigning": 8739,
      "readies": 8740,
      "koreans": 8741,
      "preparing": 8742,
      "biod": 8743,
      "hurdles": 8744,
      "bellamy": 8745,
      "trucks": 8746,
      "blackmail": 8747,
      "drinks": 8748,
      "impasse": 8749,
      "addict": 8750,
      "addressing": 8751,
      "submarine": 8752,
      "goodbye": 8753,
      "ogil": 8754,
      "rington": 8755,
      "fully": 8756,
      "carrs": 8757,
      "chelseas": 8758,
      "torres": 8759,
      "whooping": 8760,
      "robberies": 8761,
      "corrupt": 8762,
      "blocked": 8763,
      "arsenals": 8764,
      "radiation": 8765,
      "attendance": 8766,
      "samples": 8767,
      "zzy": 8768,
      "bacter": 8769,
      "cheney": 8770,
      "feedlot": 8771,
      "mumbai": 8772,
      "personnel": 8773,
      "sightings": 8774,
      "rivalry": 8775,
      "sources": 8776,
      "tabcorp": 8777,
      "reflect": 8778,
      "athlete": 8779,
      "renewable": 8780,
      "bowls": 8781,
      "january": 8782,
      "frost": 8783,
      "devastated": 8784,
      "satisfied": 8785,
      "absence": 8786,
      "licensed": 8787,
      "licensing": 8788,
      "psychiatrist": 8789,
      "paintings": 8790,
      "shrine": 8791,
      "scholarship": 8792,
      "wilson": 8793,
      "croatia": 8794,
      "tresco": 8795,
      "andrews": 8796,
      "photographer": 8797,
      "opinion": 8798,
      "yachtsman": 8799,
      "nimbin": 8800,
      "childs": 8801,
      "concessions": 8802,
      "harassment": 8803,
      "astronomers": 8804,
      "chooses": 8805,
      "spotted": 8806,
      "hughes": 8807,
      "possibility": 8808,
      "lazio": 8809,
      "portuguese": 8810,
      "navratilova": 8811,
      "mulesing": 8812,
      "schwarzenegger": 8813,
      "lloyd": 8814,
      "inzamam": 8815,
      "nistelrooy": 8816,
      "eureka": 8817,
      "meares": 8818,
      "aj": 8819,
      "awaiting": 8820,
      "bands": 8821,
      "cd": 8822,
      "dys": 8823,
      "dress": 8824,
      "eat": 8825,
      "eing": 8826,
      "fel": 8827,
      "faster": 8828,
      "gone": 8829,
      "lent": 8830,
      "lga": 8831,
      "math": 8832,
      "mese": 8833,
      "nathan": 8834,
      "tears": 8835,
      "tick": 8836,
      "yama": 8837,
      "yadh": 8838,
      "zero": 8839,
      "erts": 8840,
      "escort": 8841,
      "ansett": 8842,
      "alas": 8843,
      "alarms": 8844,
      "enn": 8845,
      "enrich": 8846,
      "toil": 8847,
      "rep": 8848,
      "reunion": 8849,
      "icts": 8850,
      "ila": 8851,
      "lean": 8852,
      "lethal": 8853,
      "uri": 8854,
      "ramatta": 8855,
      "elim": 8856,
      "entries": 8857,
      "ria": 8858,
      "rides": 8859,
      "riyadh": 8860,
      "loads": 8861,
      "beth": 8862,
      "acknow": 8863,
      "shif": 8864,
      "kefu": 8865,
      "spur": 8866,
      "appl": 8867,
      "manhunt": 8868,
      "abel": 8869,
      "veto": 8870,
      "policemen": 8871,
      "planting": 8872,
      "quad": 8873,
      "utions": 8874,
      "excell": 8875,
      "pean": 8876,
      "peter": 8877,
      "cric": 8878,
      "portland": 8879,
      "athir": 8880,
      "sud": 8881,
      "attraction": 8882,
      "wineries": 8883,
      "assures": 8884,
      "traps": 8885,
      "calling": 8886,
      "mariners": 8887,
      "discount": 8888,
      "disappoints": 8889,
      "content": 8890,
      "brands": 8891,
      "berry": 8892,
      "rowers": 8893,
      "highs": 8894,
      "surcharge": 8895,
      "moree": 8896,
      "firing": 8897,
      "mooney": 8898,
      "italians": 8899,
      "scut": 8900,
      "lowest": 8901,
      "sau": 8902,
      "restart": 8903,
      "presidency": 8904,
      "frances": 8905,
      "angel": 8906,
      "norwe": 8907,
      "phys": 8908,
      "porto": 8909,
      "burmese": 8910,
      "payouts": 8911,
      "namib": 8912,
      "westral": 8913,
      "critically": 8914,
      "runner": 8915,
      "runaway": 8916,
      "developments": 8917,
      "straw": 8918,
      "fitt": 8919,
      "mcgu": 8920,
      "hern": 8921,
      "baggage": 8922,
      "glass": 8923,
      "donates": 8924,
      "retention": 8925,
      "preparation": 8926,
      "flop": 8927,
      "steer": 8928,
      "believed": 8929,
      "suspend": 8930,
      "racq": 8931,
      "drum": 8932,
      "detains": 8933,
      "stopping": 8934,
      "speedy": 8935,
      "listen": 8936,
      "films": 8937,
      "dollars": 8938,
      "floodwaters": 8939,
      "kidman": 8940,
      "morale": 8941,
      "cleaners": 8942,
      "summons": 8943,
      "sheik": 8944,
      "magaz": 8945,
      "turnaround": 8946,
      "greatest": 8947,
      "explosive": 8948,
      "jibe": 8949,
      "quarry": 8950,
      "william": 8951,
      "complain": 8952,
      "distric": 8953,
      "enterprise": 8954,
      "tired": 8955,
      "nowra": 8956,
      "snubs": 8957,
      "flex": 8958,
      "criminals": 8959,
      "important": 8960,
      "taskforce": 8961,
      "punch": 8962,
      "frustration": 8963,
      "demolish": 8964,
      "libyan": 8965,
      "salvage": 8966,
      "prosecutor": 8967,
      "radical": 8968,
      "grazing": 8969,
      "pipe": 8970,
      "detectives": 8971,
      "fundraiser": 8972,
      "casualties": 8973,
      "wheelchair": 8974,
      "clerics": 8975,
      "satisf": 8976,
      "multiplex": 8977,
      "fetches": 8978,
      "burglary": 8979,
      "censor": 8980,
      "professor": 8981,
      "stitutional": 8982,
      "olyroos": 8983,
      "procedures": 8984,
      "disappointing": 8985,
      "barbarians": 8986,
      "spitting": 8987,
      "mahathir": 8988,
      "postpones": 8989,
      "papua": 8990,
      "incursion": 8991,
      "syringe": 8992,
      "schuettler": 8993,
      "crawford": 8994,
      "bougainville": 8995,
      "zidane": 8996,
      "trescothick": 8997,
      "westralia": 8998,
      "audi": 8999,
      "aplenty": 9000,
      "bian": 9001,
      "brought": 9002,
      "cwa": 9003,
      "eager": 9004,
      "frog": 9005,
      "gough": 9006,
      "hull": 9007,
      "hird": 9008,
      "jelly": 9009,
      "nons": 9010,
      "nding": 9011,
      "pom": 9012,
      "pounds": 9013,
      "qiri": 9014,
      "sadd": 9015,
      "var": 9016,
      "vul": 9017,
      "wada": 9018,
      "infection": 9019,
      "eneu": 9020,
      "stic": 9021,
      "reagan": 9022,
      "acid": 9023,
      "roche": 9024,
      "roster": 9025,
      "forget": 9026,
      "thg": 9027,
      "thro": 9028,
      "theme": 9029,
      "undi": 9030,
      "unimpressed": 9031,
      "lau": 9032,
      "launder": 9033,
      "semin": 9034,
      "section": 9035,
      "ambo": 9036,
      "constitutional": 9037,
      "opal": 9038,
      "plum": 9039,
      "plight": 9040,
      "sper": 9041,
      "abusing": 9042,
      "combe": 9043,
      "quot": 9044,
      "utes": 9045,
      "excus": 9046,
      "exposes": 9047,
      "peach": 9048,
      "emplo": 9049,
      "endorses": 9050,
      "blatter": 9051,
      "theory": 9052,
      "ivity": 9053,
      "minds": 9054,
      "charities": 9055,
      "highlanders": 9056,
      "feet": 9057,
      "fevol": 9058,
      "avell": 9059,
      "odi": 9060,
      "gos": 9061,
      "tribal": 9062,
      "moss": 9063,
      "invent": 9064,
      "formed": 9065,
      "mural": 9066,
      "reporters": 9067,
      "mazen": 9068,
      "label": 9069,
      "brews": 9070,
      "hawa": 9071,
      "dramatic": 9072,
      "demer": 9073,
      "tonight": 9074,
      "oppositions": 9075,
      "fishery": 9076,
      "costing": 9077,
      "hunts": 9078,
      "gaud": 9079,
      "anny": 9080,
      "sniffer": 9081,
      "bros": 9082,
      "cuit": 9083,
      "umpires": 9084,
      "hitch": 9085,
      "hitting": 9086,
      "mcga": 9087,
      "diwind": 9088,
      "gson": 9089,
      "glas": 9090,
      "cave": 9091,
      "extortion": 9092,
      "rolux": 9093,
      "electrolux": 9094,
      "gasnier": 9095,
      "steals": 9096,
      "promising": 9097,
      "clarks": 9098,
      "truth": 9099,
      "slavery": 9100,
      "windfall": 9101,
      "pray": 9102,
      "visiting": 9103,
      "subway": 9104,
      "stormers": 9105,
      "signal": 9106,
      "africans": 9107,
      "agreements": 9108,
      "allegedly": 9109,
      "fremantle": 9110,
      "divisions": 9111,
      "stabbings": 9112,
      "economist": 9113,
      "furnit": 9114,
      "bluescope": 9115,
      "cleaning": 9116,
      "koalas": 9117,
      "crossbow": 9118,
      "nightmare": 9119,
      "diet": 9120,
      "davies": 9121,
      "lockout": 9122,
      "countrylink": 9123,
      "medicine": 9124,
      "bridges": 9125,
      "choppers": 9126,
      "pulled": 9127,
      "quitting": 9128,
      "wallace": 9129,
      "grips": 9130,
      "savings": 9131,
      "karrath": 9132,
      "countdown": 9133,
      "wilko": 9134,
      "dajka": 9135,
      "giar": 9136,
      "breaching": 9137,
      "everest": 9138,
      "villawood": 9139,
      "andering": 9140,
      "arsonist": 9141,
      "toddlers": 9142,
      "software": 9143,
      "tuqiri": 9144,
      "settlements": 9145,
      "declines": 9146,
      "metal": 9147,
      "mersey": 9148,
      "rewarded": 9149,
      "hidden": 9150,
      "vintage": 9151,
      "rampant": 9152,
      "bakery": 9153,
      "delegates": 9154,
      "sprinters": 9155,
      "lamb": 9156,
      "affordability": 9157,
      "astronauts": 9158,
      "platform": 9159,
      "gonz": 9160,
      "winemaker": 9161,
      "scully": 9162,
      "algeria": 9163,
      "dalby": 9164,
      "villeneu": 9165,
      "exemption": 9166,
      "separatists": 9167,
      "goondiwind": 9168,
      "jeopardy": 9169,
      "lucas": 9170,
      "capsizes": 9171,
      "slaying": 9172,
      "pearl": 9173,
      "overdose": 9174,
      "abducted": 9175,
      "immigrants": 9176,
      "entertainment": 9177,
      "extinction": 9178,
      "relaxed": 9179,
      "polynes": 9180,
      "noosa": 9181,
      "brutal": 9182,
      "divorce": 9183,
      "pietersen": 9184,
      "vulner": 9185,
      "furniture": 9186,
      "villeneuve": 9187,
      "goondiwindi": 9188,
      "bites": 9189,
      "cfa": 9190,
      "cove": 9191,
      "cbh": 9192,
      "dim": 9193,
      "echo": 9194,
      "fade": 9195,
      "fford": 9196,
      "gart": 9197,
      "ghost": 9198,
      "hend": 9199,
      "hump": 9200,
      "ito": 9201,
      "jon": 9202,
      "lt": 9203,
      "lend": 9204,
      "nels": 9205,
      "pict": 9206,
      "sess": 9207,
      "tension": 9208,
      "wives": 9209,
      "yo": 9210,
      "yush": 9211,
      "inx": 9212,
      "anal": 9213,
      "alum": 9214,
      "sta": 9215,
      "repay": 9216,
      "replic": 9217,
      "reactor": 9218,
      "oura": 9219,
      "items": 9220,
      "ropes": 9221,
      "aspir": 9222,
      "leon": 9223,
      "chal": 9224,
      "chall": 9225,
      "depot": 9226,
      "radar": 9227,
      "elig": 9228,
      "elding": 9229,
      "amis": 9230,
      "rif": 9231,
      "contra": 9232,
      "immediate": 9233,
      "shaw": 9234,
      "shifts": 9235,
      "manchester": 9236,
      "residency": 9237,
      "abo": 9238,
      "abort": 9239,
      "abare": 9240,
      "policemans": 9241,
      "boil": 9242,
      "quell": 9243,
      "queries": 9244,
      "coke": 9245,
      "coss": 9246,
      "exile": 9247,
      "umbles": 9248,
      "emes": 9249,
      "emate": 9250,
      "inevit": 9251,
      "attit": 9252,
      "cardi": 9253,
      "actors": 9254,
      "backlog": 9255,
      "rubble": 9256,
      "trafford": 9257,
      "marse": 9258,
      "permits": 9259,
      "cert": 9260,
      "highlands": 9261,
      "avalan": 9262,
      "cannes": 9263,
[...]
